{
  "version": "1.0",
  "truncation": null,
  "padding": null,
  "added_tokens": [
    {
      "id": 0,
      "special": true,
      "content": "[STOP]",
      "single_word": false,
      "lstrip": false,
      "rstrip": false,
      "normalized": false
    },
    {
      "id": 1,
      "special": true,
      "content": "[UNK]",
      "single_word": false,
      "lstrip": false,
      "rstrip": false,
      "normalized": false
    },
    {
      "id": 2,
      "special": true,
      "content": "[SPACE]",
      "single_word": false,
      "lstrip": false,
      "rstrip": false,
      "normalized": false
    },
    {
      "id": 259,
      "special": true,
      "content": "[en]",
      "single_word": false,
      "lstrip": false,
      "rstrip": false,
      "normalized": false
    },
    {
      "id": 260,
      "special": true,
      "content": "[de]",
      "single_word": false,
      "lstrip": false,
      "rstrip": false,
      "normalized": false
    },
    {
      "id": 261,
      "special": true,
      "content": "[START]",
      "single_word": false,
      "lstrip": false,
      "rstrip": false,
      "normalized": false
    },
    {
      "id": 262,
      "special": true,
      "content": "[fr]",
      "single_word": false,
      "lstrip": false,
      "rstrip": false,
      "normalized": false
    },
    {
      "id": 284,
      "special": true,
      "content": "[es]",
      "single_word": false,
      "lstrip": false,
      "rstrip": false,
      "normalized": false
    },
    {
      "id": 285,
      "special": true,
      "content": "[it]",
      "single_word": false,
      "lstrip": false,
      "rstrip": false,
      "normalized": false
    },
    {
      "id": 286,
      "special": true,
      "content": "[pt]",
      "single_word": false,
      "lstrip": false,
      "rstrip": false,
      "normalized": false
    },
    {
      "id": 294,
      "special": true,
      "content": "[pl]",
      "single_word": false,
      "lstrip": false,
      "rstrip": false,
      "normalized": false
    },
    {
      "id": 295,
      "special": true,
      "content": "[tr]",
      "single_word": false,
      "lstrip": false,
      "rstrip": false,
      "normalized": false
    },
    {
      "id": 267,
      "special": true,
      "content": "[ru]",
      "single_word": false,
      "lstrip": false,
      "rstrip": false,
      "normalized": false
    },
    {
      "id": 293,
      "special": true,
      "content": "[cs]",
      "single_word": false,
      "lstrip": false,
      "rstrip": false,
      "normalized": false
    },
    {
      "id": 297,
      "special": true,
      "content": "[nl]",
      "single_word": false,
      "lstrip": false,
      "rstrip": false,
      "normalized": false
    },
    {
      "id": 5022,
      "special": true,
      "content": "[ar]",
      "single_word": false,
      "lstrip": false,
      "rstrip": false,
      "normalized": false
    },
    {
      "id": 5023,
      "special": true,
      "content": "[zh-cn]",
      "single_word": false,
      "lstrip": false,
      "rstrip": false,
      "normalized": false
    },
    {
      "id": 5412,
      "special": true,
      "content": "[ja]",
      "single_word": false,
      "lstrip": false,
      "rstrip": false,
      "normalized": false
    },
    {
      "id": 5753,
      "special": true,
      "content": "[hu]",
      "single_word": false,
      "lstrip": false,
      "rstrip": false,
      "normalized": false
    },
    {
      "id": 6152,
      "special": true,
      "content": "[ko]",
      "single_word": false,
      "lstrip": false,
      "rstrip": false,
      "normalized": false
    },
    {
      "id": 6680,
      "special": true,
      "content": "[hi]",
      "single_word": false,
      "lstrip": false,
      "rstrip": false,
      "normalized": false
    },
    {
      "id": 6681,
      "special": true,
      "content": "[start]",
      "single_word": false,
      "lstrip": false,
      "rstrip": false,
      "normalized": false
    },
    {
      "id": 6682,
      "special": true,
      "content": "[intro]",
      "single_word": false,
      "lstrip": false,
      "rstrip": false,
      "normalized": false
    },
    {
      "id": 6683,
      "special": true,
      "content": "[verse]",
      "single_word": false,
      "lstrip": false,
      "rstrip": false,
      "normalized": false
    },
    {
      "id": 6684,
      "special": true,
      "content": "[chorus]",
      "single_word": false,
      "lstrip": false,
      "rstrip": false,
      "normalized": false
    },
    {
      "id": 6685,
      "special": true,
      "content": "[bridge]",
      "single_word": false,
      "lstrip": false,
      "rstrip": false,
      "normalized": false
    },
    {
      "id": 6686,
      "special": true,
      "content": "[outro]",
      "single_word": false,
      "lstrip": false,
      "rstrip": false,
      "normalized": false
    },
    {
      "id": 6687,
      "special": true,
      "content": "[end]",
      "single_word": false,
      "lstrip": false,
      "rstrip": false,
      "normalized": false
    },
    {
      "id": 6688,
      "special": true,
      "content": "[inst]",
      "single_word": false,
      "lstrip": false,
      "rstrip": false,
      "normalized": false
    },
    {
      "id": 6689,
      "special": true,
      "content": "[solo]",
      "single_word": false,
      "lstrip": false,
      "rstrip": false,
      "normalized": false
    },
    {
      "id": 6690,
      "special": true,
      "content": "[hook]",
      "single_word": false,
      "lstrip": false,
      "rstrip": false,
      "normalized": false
    },
    {
      "id": 6691,
      "special": true,
      "content": "[pre-chorus]",
      "single_word": false,
      "lstrip": false,
      "rstrip": false,
      "normalized": false
    },
    {
      "id": 6692,
      "special": true,
      "content": "[break]",
      "single_word": false,
      "lstrip": false,
      "rstrip": false,
      "normalized": false
    },
    {
      "id": 6693,
      "content": "[vi]",
      "single_word": false,
      "lstrip": false,
      "rstrip": false,
      "normalized": false,
      "special": true
    }
    
  ],
  "normalizer": null,
  "pre_tokenizer": {
    "type": "Whitespace"
  },
  "post_processor": null,
  "decoder": null,
  "model": {
    "type": "BPE",
    "dropout": null,
    "unk_token": "[UNK]",
    "continuing_subword_prefix": null,
    "end_of_word_suffix": null,
    "fuse_unk": false,
    "vocab": {
      "[STOP]": 0,
      "[UNK]": 1,
      "[SPACE]": 2,
      "!": 3,
      "'": 4,
      "(": 5,
      ")": 6,
      ",": 7,
      "-": 8,
      ".": 9,
      "/": 10,
      ":": 11,
      ";": 12,
      "?": 13,
      "a": 14,
      "b": 15,
      "c": 16,
      "d": 17,
      "e": 18,
      "f": 19,
      "g": 20,
      "h": 21,
      "i": 22,
      "j": 23,
      "k": 24,
      "l": 25,
      "m": 26,
      "n": 27,
      "o": 28,
      "p": 29,
      "q": 30,
      "r": 31,
      "s": 32,
      "t": 33,
      "u": 34,
      "v": 35,
      "w": 36,
      "x": 37,
      "y": 38,
      "z": 39,
      "th": 40,
      "in": 41,
      "the": 42,
      "an": 43,
      "er": 44,
      "ou": 45,
      "re": 46,
      "on": 47,
      "at": 48,
      "ed": 49,
      "en": 50,
      "to": 51,
      "ing": 52,
      "and": 53,
      "is": 54,
      "as": 55,
      "al": 56,
      "or": 57,
      "of": 58,
      "ar": 59,
      "it": 60,
      "es": 61,
      "he": 62,
      "st": 63,
      "le": 64,
      "om": 65,
      "se": 66,
      "be": 67,
      "ad": 68,
      "ow": 69,
      "ly": 70,
      "ch": 71,
      "wh": 72,
      "that": 73,
      "you": 74,
      "li": 75,
      "ve": 76,
      "ac": 77,
      "ti": 78,
      "ld": 79,
      "me": 80,
      "was": 81,
      "gh": 82,
      "id": 83,
      "ll": 84,
      "wi": 85,
      "ent": 86,
      "for": 87,
      "ay": 88,
      "ro": 89,
      "ver": 90,
      "ic": 91,
      "her": 92,
      "ke": 93,
      "his": 94,
      "no": 95,
      "ut": 96,
      "un": 97,
      "ir": 98,
      "lo": 99,
      "we": 100,
      "ri": 101,
      "ha": 102,
      "with": 103,
      "ght": 104,
      "out": 105,
      "im": 106,
      "ion": 107,
      "all": 108,
      "ab": 109,
      "one": 110,
      "ne": 111,
      "ge": 112,
      "ould": 113,
      "ter": 114,
      "mo": 115,
      "had": 116,
      "ce": 117,
      "she": 118,
      "go": 119,
      "sh": 120,
      "ur": 121,
      "am": 122,
      "so": 123,
      "pe": 124,
      "my": 125,
      "de": 126,
      "are": 127,
      "but": 128,
      "ome": 129,
      "fr": 130,
      "ther": 131,
      "fe": 132,
      "su": 133,
      "do": 134,
      "con": 135,
      "te": 136,
      "ain": 137,
      "ere": 138,
      "po": 139,
      "if": 140,
      "they": 141,
      "us": 142,
      "ag": 143,
      "tr": 144,
      "now": 145,
      "oun": 146,
      "this": 147,
      "have": 148,
      "not": 149,
      "sa": 150,
      "il": 151,
      "up": 152,
      "thing": 153,
      "from": 154,
      "ap": 155,
      "him": 156,
      "ack": 157,
      "ation": 158,
      "ant": 159,
      "our": 160,
      "op": 161,
      "like": 162,
      "ust": 163,
      "ess": 164,
      "bo": 165,
      "ok": 166,
      "ul": 167,
      "ind": 168,
      "ex": 169,
      "com": 170,
      "some": 171,
      "there": 172,
      "ers": 173,
      "co": 174,
      "res": 175,
      "man": 176,
      "ard": 177,
      "pl": 178,
      "wor": 179,
      "way": 180,
      "tion": 181,
      "fo": 182,
      "ca": 183,
      "were": 184,
      "by": 185,
      "ate": 186,
      "pro": 187,
      "ted": 188,
      "ound": 189,
      "own": 190,
      "would": 191,
      "ts": 192,
      "what": 193,
      "qu": 194,
      "ally": 195,
      "ight": 196,
      "ck": 197,
      "gr": 198,
      "when": 199,
      "ven": 200,
      "can": 201,
      "ough": 202,
      "ine": 203,
      "end": 204,
      "per": 205,
      "ous": 206,
      "od": 207,
      "ide": 208,
      "know": 209,
      "ty": 210,
      "very": 211,
      "si": 212,
      "ak": 213,
      "who": 214,
      "about": 215,
      "ill": 216,
      "them": 217,
      "est": 218,
      "red": 219,
      "ye": 220,
      "could": 221,
      "ong": 222,
      "your": 223,
      "their": 224,
      "em": 225,
      "just": 226,
      "other": 227,
      "into": 228,
      "any": 229,
      "whi": 230,
      "um": 231,
      "tw": 232,
      "ast": 233,
      "der": 234,
      "did": 235,
      "ie": 236,
      "been": 237,
      "ace": 238,
      "ink": 239,
      "ity": 240,
      "back": 241,
      "ting": 242,
      "br": 243,
      "more": 244,
      "ake": 245,
      "pp": 246,
      "then": 247,
      "sp": 248,
      "el": 249,
      "use": 250,
      "bl": 251,
      "said": 252,
      "over": 253,
      "get": 254,
      "ß": 255,
      "ä": 256,
      "ö": 257,
      "ü": 258,
      "[en]": 259,
      "[de]": 260,
      "[START]": 261,
      "[fr]": 262,
      "œ": 263,
      "ï": 264,
      "ê": 265,
      "â": 266,
      "[ru]": 267,
      "ÿ": 268,
      "è": 269,
      "à": 270,
      "ë": 271,
      "ù": 272,
      "î": 273,
      "ç": 274,
      "æ": 275,
      "ô": 276,
      "û": 277,
      "á": 278,
      "é": 279,
      "í": 280,
      "ó": 281,
      "ú": 282,
      "ñ": 283,
      "[es]": 284,
      "[it]": 285,
      "[pt]": 286,
      "ń": 287,
      "ś": 288,
      "ę": 289,
      "ą": 290,
      "ż": 291,
      "ć": 292,
      "[cs]": 293,
      "[pl]": 294,
      "[tr]": 295,
      "ã": 296,
      "[nl]": 297,
      "ş": 298,
      "ğ": 299,
      "ı": 300,
      "ò": 301,
      "ì": 302,
      "¿": 303,
      "…": 304,
      "i̇": 305,
      "õ": 306,
      "\"": 307,
      "´": 308,
      "ø": 309,
      "č": 310,
      "ō": 311,
      "š": 312,
      "ž": 313,
      "̇": 314,
      "ei": 315,
      "ich": 316,
      "ein": 317,
      "au": 318,
      "sch": 319,
      "und": 320,
      "die": 321,
      "da": 322,
      "den": 323,
      "gen": 324,
      "zu": 325,
      "hr": 326,
      "ten": 327,
      "mi": 328,
      "sie": 329,
      "das": 330,
      "eine": 331,
      "icht": 332,
      "ber": 333,
      "ach": 334,
      "auf": 335,
      "lich": 336,
      "nicht": 337,
      "mm": 338,
      "ben": 339,
      "war": 340,
      "mit": 341,
      "sich": 342,
      "ig": 343,
      "aus": 344,
      "ist": 345,
      "wie": 346,
      "och": 347,
      "ung": 348,
      "ann": 349,
      "ür": 350,
      "hn": 351,
      "ihr": 352,
      "sen": 353,
      "tz": 354,
      "dem": 355,
      "eit": 356,
      "hat": 357,
      "wir": 358,
      "von": 359,
      "wei": 360,
      "ier": 361,
      "ra": 362,
      "einen": 363,
      "vor": 364,
      "als": 365,
      "wo": 366,
      "rei": 367,
      "ste": 368,
      "lie": 369,
      "auch": 370,
      "du": 371,
      "des": 372,
      "ko": 373,
      "über": 374,
      "bei": 375,
      "hen": 376,
      "hm": 377,
      "lei": 378,
      "aber": 379,
      "wen": 380,
      "hl": 381,
      "ger": 382,
      "nach": 383,
      "ft": 384,
      "imm": 385,
      "je": 386,
      "schen": 387,
      "wer": 388,
      "ser": 389,
      "än": 390,
      "sein": 391,
      "ol": 392,
      "cht": 393,
      "für": 394,
      "kl": 395,
      "ff": 396,
      "einem": 397,
      "nen": 398,
      "ja": 399,
      "noch": 400,
      "hatte": 401,
      "pf": 402,
      "hin": 403,
      "di": 404,
      "chen": 405,
      "rü": 406,
      "iel": 407,
      "sel": 408,
      "dass": 409,
      "ihn": 410,
      "mir": 411,
      "schl": 412,
      "ön": 413,
      "gan": 414,
      "gt": 415,
      "einer": 416,
      "sten": 417,
      "mich": 418,
      "wenn": 419,
      "ell": 420,
      "gte": 421,
      "mal": 422,
      "gel": 423,
      "ken": 424,
      "nur": 425,
      "mmen": 426,
      "fü": 427,
      "ern": 428,
      "ör": 429,
      "unter": 430,
      "ander": 431,
      "dur": 432,
      "uch": 433,
      "ta": 434,
      "men": 435,
      "mach": 436,
      "doch": 437,
      "durch": 438,
      "os": 439,
      "gl": 440,
      "hal": 441,
      "ihre": 442,
      "wä": 443,
      "immer": 444,
      "ihm": 445,
      "kann": 446,
      "ort": 447,
      "dann": 448,
      "lan": 449,
      "tzt": 450,
      "oder": 451,
      "hren": 452,
      "et": 453,
      "kön": 454,
      "ick": 455,
      "fa": 456,
      "wieder": 457,
      "daß": 458,
      "mein": 459,
      "fen": 460,
      "ganz": 461,
      "diese": 462,
      "ster": 463,
      "dar": 464,
      "wa": 465,
      "ges": 466,
      "na": 467,
      "fl": 468,
      "igen": 469,
      "sche": 470,
      "ungen": 471,
      "mehr": 472,
      "ßen": 473,
      "ot": 474,
      "kon": 475,
      "gew": 476,
      "haben": 477,
      "geh": 478,
      "ät": 479,
      "sind": 480,
      "dr": 481,
      "wel": 482,
      "uns": 483,
      "vo": 484,
      "ma": 485,
      "ute": 486,
      "schon": 487,
      "bes": 488,
      "gesch": 489,
      "bt": 490,
      "che": 491,
      "son": 492,
      "ob": 493,
      "la": 494,
      "rück": 495,
      "seine": 496,
      "kr": 497,
      "fre": 498,
      "eil": 499,
      "zum": 500,
      "hier": 501,
      "kt": 502,
      "ige": 503,
      "spr": 504,
      "leben": 505,
      "bst": 506,
      "zeit": 507,
      "gro": 508,
      "denn": 509,
      "ho": 510,
      "scha": 511,
      "bar": 512,
      "alle": 513,
      "gegen": 514,
      "wür": 515,
      "mü": 516,
      "ze": 517,
      "werden": 518,
      "jetzt": 519,
      "kommen": 520,
      "nie": 521,
      "sei": 522,
      "heit": 523,
      "soll": 524,
      "glei": 525,
      "meine": 526,
      "woll": 527,
      "ner": 528,
      "habe": 529,
      "wur": 530,
      "lichen": 531,
      "assen": 532,
      "nte": 533,
      "sehen": 534,
      "wird": 535,
      "bis": 536,
      "gar": 537,
      "ien": 538,
      "mus": 539,
      "uß": 540,
      "är": 541,
      "stell": 542,
      "keit": 543,
      "zwei": 544,
      "selbst": 545,
      "sta": 546,
      "pa": 547,
      "sagte": 548,
      "tet": 549,
      "kam": 550,
      "ssen": 551,
      "viel": 552,
      "ug": 553,
      "zen": 554,
      "hei": 555,
      "mann": 556,
      "will": 557,
      "geb": 558,
      "waren": 559,
      "ück": 560,
      "äch": 561,
      "mer": 562,
      "ru": 563,
      "hau": 564,
      "eigen": 565,
      "ang": 566,
      "weg": 567,
      "blick": 568,
      "fra": 569,
      "alles": 570,
      "ka": 571,
      "augen": 572,
      "fin": 573,
      "liche": 574,
      "unser": 575,
      "dern": 576,
      "herr": 577,
      "nun": 578,
      "vie": 579,
      "chte": 580,
      "wohl": 581,
      "fall": 582,
      "ht": 583,
      "ün": 584,
      "etwas": 585,
      "stand": 586,
      "äu": 587,
      "mö": 588,
      "tel": 589,
      "rie": 590,
      "dich": 591,
      "dies": 592,
      "hand": 593,
      "bin": 594,
      "ffen": 595,
      "nichts": 596,
      "dan": 597,
      "hne": 598,
      "ihnen": 599,
      "esen": 600,
      "dieser": 601,
      "frau": 602,
      "art": 603,
      "dir": 604,
      "isch": 605,
      "erst": 606,
      "gleich": 607,
      "komm": 608,
      "hör": 609,
      "ße": 610,
      "dig": 611,
      "sehr": 612,
      "zei": 613,
      "sam": 614,
      "aum": 615,
      "hät": 616,
      "ingen": 617,
      "gut": 618,
      "mut": 619,
      "cken": 620,
      "konnte": 621,
      "stimm": 622,
      "zur": 623,
      "itz": 624,
      "weil": 625,
      "würde": 626,
      "fä": 627,
      "können": 628,
      "keine": 629,
      "fer": 630,
      "ischen": 631,
      "voll": 632,
      "eines": 633,
      "setz": 634,
      "zie": 635,
      "del": 636,
      "tete": 637,
      "seiner": 638,
      "ieren": 639,
      "gest": 640,
      "zurück": 641,
      "wurde": 642,
      "schn": 643,
      "pr": 644,
      "ließ": 645,
      "tra": 646,
      "mä": 647,
      "gend": 648,
      "fol": 649,
      "ik": 650,
      "schla": 651,
      "schaft": 652,
      "ater": 653,
      "weiß": 654,
      "seinen": 655,
      "lassen": 656,
      "lu": 657,
      "unden": 658,
      "teil": 659,
      "neu": 660,
      "iert": 661,
      "menschen": 662,
      "hmen": 663,
      "str": 664,
      "gi": 665,
      "sah": 666,
      "ihren": 667,
      "eln": 668,
      "weiter": 669,
      "gehen": 670,
      "iger": 671,
      "macht": 672,
      "tag": 673,
      "also": 674,
      "halten": 675,
      "nis": 676,
      "acht": 677,
      "geben": 678,
      "og": 679,
      "nat": 680,
      "mar": 681,
      "det": 682,
      "ohne": 683,
      "haus": 684,
      "tro": 685,
      "ange": 686,
      "lau": 687,
      "spiel": 688,
      "tre": 689,
      "schr": 690,
      "inn": 691,
      "los": 692,
      "machen": 693,
      "hätte": 694,
      "beg": 695,
      "wirk": 696,
      "alt": 697,
      "glich": 698,
      "tes": 699,
      "richt": 700,
      "freund": 701,
      "ihrer": 702,
      "fel": 703,
      "bel": 704,
      "sol": 705,
      "einmal": 706,
      "eben": 707,
      "hol": 708,
      "hän": 709,
      "tern": 710,
      "hö": 711,
      "schw": 712,
      "recht": 713,
      "wahr": 714,
      "seinem": 715,
      "stehen": 716,
      "hlen": 717,
      "ins": 718,
      "ging": 719,
      "wollte": 720,
      "wissen": 721,
      "ungs": 722,
      "ald": 723,
      "ass": 724,
      "jahr": 725,
      "mor": 726,
      "welt": 727,
      "under": 728,
      "zusa": 729,
      "kopf": 730,
      "lang": 731,
      "hinter": 732,
      "atz": 733,
      "stra": 734,
      "angen": 735,
      "ank": 736,
      "ade": 737,
      "glau": 738,
      "fach": 739,
      "hatten": 740,
      "fort": 741,
      "eicht": 742,
      "iff": 743,
      "ler": 744,
      "mei": 745,
      "diesem": 746,
      "kein": 747,
      "frei": 748,
      "führ": 749,
      "vom": 750,
      "β": 751,
      "ai": 752,
      "ait": 753,
      "que": 754,
      "les": 755,
      "av": 756,
      "ais": 757,
      "oi": 758,
      "eu": 759,
      "lle": 760,
      "par": 761,
      "ans": 762,
      "ment": 763,
      "ét": 764,
      "une": 765,
      "pas": 766,
      "qui": 767,
      "elle": 768,
      "dé": 769,
      "pour": 770,
      "dans": 771,
      "ré": 772,
      "tou": 773,
      "vous": 774,
      "vi": 775,
      "ouv": 776,
      "mon": 777,
      "sur": 778,
      "ci": 779,
      "plu": 780,
      "ère": 781,
      "mais": 782,
      "ois": 783,
      "plus": 784,
      "ée": 785,
      "aient": 786,
      "mp": 787,
      "lui": 788,
      "ave": 789,
      "était": 790,
      "ses": 791,
      "tout": 792,
      "oir": 793,
      "avait": 794,
      "és": 795,
      "mes": 796,
      "nous": 797,
      "eux": 798,
      "bi": 799,
      "ons": 800,
      "pu": 801,
      "ces": 802,
      "tu": 803,
      "leur": 804,
      "don": 805,
      "eur": 806,
      "ette": 807,
      "aire": 808,
      "avec": 809,
      "dit": 810,
      "té": 811,
      "ille": 812,
      "comme": 813,
      "cr": 814,
      "ux": 815,
      "ès": 816,
      "aux": 817,
      "jour": 818,
      "ils": 819,
      "bien": 820,
      "cou": 821,
      "quel": 822,
      "peu": 823,
      "cette": 824,
      "cu": 825,
      "mê": 826,
      "fait": 827,
      "gu": 828,
      "être": 829,
      "ité": 830,
      "ens": 831,
      "ni": 832,
      "lé": 833,
      "dis": 834,
      "ble": 835,
      "né": 836,
      "puis": 837,
      "même": 838,
      "ques": 839,
      "fi": 840,
      "age": 841,
      "moi": 842,
      "ence": 843,
      "ont": 844,
      "main": 845,
      "ors": 846,
      "aut": 847,
      "ance": 848,
      "mé": 849,
      "sans": 850,
      "sé": 851,
      "lon": 852,
      "hom": 853,
      "car": 854,
      "able": 855,
      "cher": 856,
      "deux": 857,
      "enf": 858,
      "où": 859,
      "ph": 860,
      "ure": 861,
      "temp": 862,
      "pos": 863,
      "rent": 864,
      "pé": 865,
      "faire": 866,
      "pi": 867,
      "tres": 868,
      "ça": 869,
      "endre": 870,
      "bon": 871,
      "sou": 872,
      "int": 873,
      "pré": 874,
      "sent": 875,
      "tant": 876,
      "cer": 877,
      "là": 878,
      "lais": 879,
      "près": 880,
      "bre": 881,
      "cour": 882,
      "pet": 883,
      "comp": 884,
      "lait": 885,
      "trouv": 886,
      "entre": 887,
      "sont": 888,
      "dev": 889,
      "nu": 890,
      "temps": 891,
      "dou": 892,
      "rait": 893,
      "bou": 894,
      "quand": 895,
      "jours": 896,
      "avoir": 897,
      "été": 898,
      "ale": 899,
      "pre": 900,
      "fois": 901,
      "orte": 902,
      "vé": 903,
      "non": 904,
      "tous": 905,
      "jus": 906,
      "coup": 907,
      "homme": 908,
      "ête": 909,
      "aussi": 910,
      "urs": 911,
      "seu": 912,
      "ord": 913,
      "min": 914,
      "gé": 915,
      "core": 916,
      "va": 917,
      "vre": 918,
      "encore": 919,
      "sem": 920,
      "ite": 921,
      "autre": 922,
      "pris": 923,
      "peut": 924,
      "ue": 925,
      "ante": 926,
      "gn": 927,
      "rép": 928,
      "hu": 929,
      "sion": 930,
      "votre": 931,
      "dire": 932,
      "ez": 933,
      "fem": 934,
      "leurs": 935,
      "met": 936,
      "cri": 937,
      "mis": 938,
      "tour": 939,
      "rai": 940,
      "jam": 941,
      "regar": 942,
      "rien": 943,
      "vers": 944,
      "suis": 945,
      "pouv": 946,
      "vis": 947,
      "grand": 948,
      "ants": 949,
      "cor": 950,
      "rer": 951,
      "cé": 952,
      "tent": 953,
      "pres": 954,
      "vou": 955,
      "alors": 956,
      "sieur": 957,
      "aine": 958,
      "quoi": 959,
      "fon": 960,
      "endant": 961,
      "arri": 962,
      "eure": 963,
      "après": 964,
      "donc": 965,
      "itu": 966,
      "lè": 967,
      "sait": 968,
      "toi": 969,
      "cha": 970,
      "ail": 971,
      "asse": 972,
      "imp": 973,
      "voy": 974,
      "conn": 975,
      "pla": 976,
      "petit": 977,
      "avant": 978,
      "nom": 979,
      "tin": 980,
      "dont": 981,
      "sous": 982,
      "emp": 983,
      "person": 984,
      "elles": 985,
      "beau": 986,
      "parti": 987,
      "cho": 988,
      "prit": 989,
      "toujours": 990,
      "rais": 991,
      "jamais": 992,
      "trav": 993,
      "tions": 994,
      "très": 995,
      "voi": 996,
      "ren": 997,
      "yeux": 998,
      "voir": 999,
      "premi": 1000,
      "gne": 1001,
      "heure": 1002,
      "rou": 1003,
      "eff": 1004,
      "notre": 1005,
      "ments": 1006,
      "ton": 1007,
      "fais": 1008,
      "cela": 1009,
      "répon": 1010,
      "cons": 1011,
      "air": 1012,
      "ôt": 1013,
      "pendant": 1014,
      "ici": 1015,
      "toute": 1016,
      "jet": 1017,
      "port": 1018,
      "étaient": 1019,
      "pen": 1020,
      "hé": 1021,
      "autres": 1022,
      "père": 1023,
      "oc": 1024,
      "quelques": 1025,
      "ique": 1026,
      "lis": 1027,
      "femme": 1028,
      "jou": 1029,
      "teur": 1030,
      "monde": 1031,
      "nes": 1032,
      "dre": 1033,
      "aff": 1034,
      "rap": 1035,
      "part": 1036,
      "lement": 1037,
      "cla": 1038,
      "fut": 1039,
      "quelque": 1040,
      "prendre": 1041,
      "rê": 1042,
      "aille": 1043,
      "sais": 1044,
      "ches": 1045,
      "let": 1046,
      "char": 1047,
      "ères": 1048,
      "ents": 1049,
      "moins": 1050,
      "eau": 1051,
      "aî": 1052,
      "jeu": 1053,
      "heur": 1054,
      "ées": 1055,
      "tri": 1056,
      "point": 1057,
      "mom": 1058,
      "vent": 1059,
      "nouv": 1060,
      "gran": 1061,
      "trois": 1062,
      "sant": 1063,
      "toutes": 1064,
      "contre": 1065,
      "èrent": 1066,
      "chez": 1067,
      "avez": 1068,
      "ût": 1069,
      "att": 1070,
      "pau": 1071,
      "porte": 1072,
      "ouver": 1073,
      "lit": 1074,
      "prés": 1075,
      "chose": 1076,
      "vit": 1077,
      "monsieur": 1078,
      "hab": 1079,
      "tête": 1080,
      "ju": 1081,
      "tement": 1082,
      "ction": 1083,
      "vrai": 1084,
      "lar": 1085,
      "cet": 1086,
      "regard": 1087,
      "lant": 1088,
      "som": 1089,
      "moment": 1090,
      "illes": 1091,
      "ple": 1092,
      "ps": 1093,
      "mère": 1094,
      "cl": 1095,
      "sour": 1096,
      "ys": 1097,
      "trop": 1098,
      "enne": 1099,
      "jusqu": 1100,
      "avaient": 1101,
      "avais": 1102,
      "jeune": 1103,
      "depuis": 1104,
      "personne": 1105,
      "fit": 1106,
      "cert": 1107,
      "jo": 1108,
      "oui": 1109,
      "rest": 1110,
      "semb": 1111,
      "cap": 1112,
      "mat": 1113,
      "mu": 1114,
      "long": 1115,
      "fran": 1116,
      "faut": 1117,
      "iti": 1118,
      "bli": 1119,
      "chev": 1120,
      "pri": 1121,
      "ente": 1122,
      "ainsi": 1123,
      "cham": 1124,
      "lors": 1125,
      "cas": 1126,
      "ili": 1127,
      "bé": 1128,
      "nos": 1129,
      "sui": 1130,
      "rit": 1131,
      "cro": 1132,
      "gue": 1133,
      "ía": 1134,
      "por": 1135,
      "las": 1136,
      "ón": 1137,
      "una": 1138,
      "aba": 1139,
      "dos": 1140,
      "era": 1141,
      "mb": 1142,
      "para": 1143,
      "ás": 1144,
      "mos": 1145,
      "ando": 1146,
      "como": 1147,
      "más": 1148,
      "ción": 1149,
      "tan": 1150,
      "dad": 1151,
      "ado": 1152,
      "fu": 1153,
      "cia": 1154,
      "mente": 1155,
      "sus": 1156,
      "tar": 1157,
      "za": 1158,
      "ba": 1159,
      "pero": 1160,
      "sin": 1161,
      "lla": 1162,
      "án": 1163,
      "ia": 1164,
      "ran": 1165,
      "ga": 1166,
      "yo": 1167,
      "tos": 1168,
      "cos": 1169,
      "ya": 1170,
      "ones": 1171,
      "había": 1172,
      "hi": 1173,
      "esta": 1174,
      "mas": 1175,
      "tor": 1176,
      "aban": 1177,
      "dor": 1178,
      "ían": 1179,
      "tas": 1180,
      "én": 1181,
      "endo": 1182,
      "aque": 1183,
      "ero": 1184,
      "io": 1185,
      "qué": 1186,
      "cab": 1187,
      "tal": 1188,
      "señ": 1189,
      "ora": 1190,
      "todo": 1191,
      "sal": 1192,
      "cuando": 1193,
      "gun": 1194,
      "bu": 1195,
      "ras": 1196,
      "esto": 1197,
      "pare": 1198,
      "él": 1199,
      "tras": 1200,
      "jos": 1201,
      "mien": 1202,
      "pue": 1203,
      "cre": 1204,
      "pon": 1205,
      "día": 1206,
      "tros": 1207,
      "sab": 1208,
      "sobre": 1209,
      "ese": 1210,
      "mbre": 1211,
      "eron": 1212,
      "añ": 1213,
      "ido": 1214,
      "porque": 1215,
      "ella": 1216,
      "cen": 1217,
      "muy": 1218,
      "cal": 1219,
      "este": 1220,
      "has": 1221,
      "có": 1222,
      "gra": 1223,
      "ros": 1224,
      "aquel": 1225,
      "dijo": 1226,
      "cía": 1227,
      "zo": 1228,
      "ciones": 1229,
      "mbi": 1230,
      "elo": 1231,
      "tó": 1232,
      "ina": 1233,
      "todos": 1234,
      "tien": 1235,
      "estaba": 1236,
      "deci": 1237,
      "cio": 1238,
      "ño": 1239,
      "lor": 1240,
      "nues": 1241,
      "medi": 1242,
      "len": 1243,
      "vida": 1244,
      "ali": 1245,
      "pues": 1246,
      "ales": 1247,
      "vol": 1248,
      "mí": 1249,
      "rar": 1250,
      "cion": 1251,
      "hasta": 1252,
      "señor": 1253,
      "cono": 1254,
      "ah": 1255,
      "dios": 1256,
      "esa": 1257,
      "ún": 1258,
      "var": 1259,
      "san": 1260,
      "gui": 1261,
      "otros": 1262,
      "tado": 1263,
      "buen": 1264,
      "ña": 1265,
      "tiemp": 1266,
      "hacer": 1267,
      "jer": 1268,
      "vu": 1269,
      "ana": 1270,
      "así": 1271,
      "antes": 1272,
      "vez": 1273,
      "miento": 1274,
      "jar": 1275,
      "lab": 1276,
      "casa": 1277,
      "eso": 1278,
      "ego": 1279,
      "dió": 1280,
      "está": 1281,
      "encia": 1282,
      "eli": 1283,
      "ías": 1284,
      "tiempo": 1285,
      "zar": 1286,
      "van": 1287,
      "mun": 1288,
      "erta": 1289,
      "tambi": 1290,
      "sí": 1291,
      "aun": 1292,
      "mismo": 1293,
      "entes": 1294,
      "mano": 1295,
      "ele": 1296,
      "nada": 1297,
      "segu": 1298,
      "mej": 1299,
      "erra": 1300,
      "tir": 1301,
      "uno": 1302,
      "donde": 1303,
      "toda": 1304,
      "desde": 1305,
      "también": 1306,
      "cuer": 1307,
      "hombre": 1308,
      "otro": 1309,
      "lib": 1310,
      "trar": 1311,
      "cual": 1312,
      "hay": 1313,
      "cada": 1314,
      "taba": 1315,
      "mento": 1316,
      "tenía": 1317,
      "quer": 1318,
      "eran": 1319,
      "siemp": 1320,
      "siempre": 1321,
      "erto": 1322,
      "quí": 1323,
      "gos": 1324,
      "pués": 1325,
      "ellos": 1326,
      "después": 1327,
      "nue": 1328,
      "llo": 1329,
      "inter": 1330,
      "cómo": 1331,
      "ahora": 1332,
      "uste": 1333,
      "traba": 1334,
      "lado": 1335,
      "ino": 1336,
      "poco": 1337,
      "erte": 1338,
      "mujer": 1339,
      "quier": 1340,
      "algun": 1341,
      "fue": 1342,
      "ojos": 1343,
      "enton": 1344,
      "vos": 1345,
      "esper": 1346,
      "much": 1347,
      "otra": 1348,
      "az": 1349,
      "eza": 1350,
      "aquí": 1351,
      "cias": 1352,
      "gua": 1353,
      "mucho": 1354,
      "decir": 1355,
      "esti": 1356,
      "idad": 1357,
      "algo": 1358,
      "ocu": 1359,
      "entonces": 1360,
      "dido": 1361,
      "entos": 1362,
      "gri": 1363,
      "dado": 1364,
      "ios": 1365,
      "dose": 1366,
      "usted": 1367,
      "quien": 1368,
      "ami": 1369,
      "unto": 1370,
      "mejor": 1371,
      "bas": 1372,
      "solo": 1373,
      "pregun": 1374,
      "tur": 1375,
      "alg": 1376,
      "todas": 1377,
      "parte": 1378,
      "emb": 1379,
      "cto": 1380,
      "mundo": 1381,
      "tiene": 1382,
      "tante": 1383,
      "palab": 1384,
      "tran": 1385,
      "aquella": 1386,
      "cios": 1387,
      "aunque": 1388,
      "cuen": 1389,
      "tener": 1390,
      "fun": 1391,
      "respon": 1392,
      "allí": 1393,
      "xi": 1394,
      "han": 1395,
      "pens": 1396,
      "contra": 1397,
      "tura": 1398,
      "val": 1399,
      "dio": 1400,
      "tanto": 1401,
      "camin": 1402,
      "mó": 1403,
      "esp": 1404,
      "ada": 1405,
      "ío": 1406,
      "hacia": 1407,
      "dej": 1408,
      "estar": 1409,
      "ión": 1410,
      "gas": 1411,
      "vas": 1412,
      "noche": 1413,
      "ér": 1414,
      "años": 1415,
      "padre": 1416,
      "gus": 1417,
      "ár": 1418,
      "sino": 1419,
      "manos": 1420,
      "cido": 1421,
      "estu": 1422,
      "hubi": 1423,
      "vir": 1424,
      "bri": 1425,
      "raz": 1426,
      "chi": 1427,
      "puede": 1428,
      "menos": 1429,
      "habi": 1430,
      "homb": 1431,
      "neces": 1432,
      "may": 1433,
      "eros": 1434,
      "ría": 1435,
      "hecho": 1436,
      "escu": 1437,
      "lti": 1438,
      "ándo": 1439,
      "bus": 1440,
      "cosas": 1441,
      "tú": 1442,
      "espa": 1443,
      "reci": 1444,
      "ctor": 1445,
      "prim": 1446,
      "dia": 1447,
      "dese": 1448,
      "mientras": 1449,
      "hor": 1450,
      "fuer": 1451,
      "ida": 1452,
      "posi": 1453,
      "lante": 1454,
      "ano": 1455,
      "estas": 1456,
      "pli": 1457,
      "luego": 1458,
      "sión": 1459,
      "cin": 1460,
      "tierra": 1461,
      "guar": 1462,
      "cado": 1463,
      "encon": 1464,
      "pren": 1465,
      "mayor": 1466,
      "fal": 1467,
      "ð": 1468,
      "ħ": 1469,
      "ň": 1470,
      "ə": 1471,
      "θ": 1472,
      "’": 1473,
      "“": 1474,
      "”": 1475,
      "zi": 1476,
      "gli": 1477,
      "tto": 1478,
      "ono": 1479,
      "nel": 1480,
      "tti": 1481,
      "della": 1482,
      "zione": 1483,
      "tta": 1484,
      "tà": 1485,
      "uo": 1486,
      "come": 1487,
      "alla": 1488,
      "oni": 1489,
      "ggi": 1490,
      "ssi": 1491,
      "più": 1492,
      "ini": 1493,
      "bb": 1494,
      "sto": 1495,
      "sono": 1496,
      "eri": 1497,
      "sse": 1498,
      "sc": 1499,
      "sul": 1500,
      "vano": 1501,
      "sti": 1502,
      "suo": 1503,
      "cchi": 1504,
      "zza": 1505,
      "anche": 1506,
      "tte": 1507,
      "sci": 1508,
      "col": 1509,
      "sso": 1510,
      "ssa": 1511,
      "dei": 1512,
      "aveva": 1513,
      "zz": 1514,
      "amo": 1515,
      "gno": 1516,
      "sua": 1517,
      "ria": 1518,
      "sì": 1519,
      "ché": 1520,
      "dal": 1521,
      "ona": 1522,
      "spe": 1523,
      "gni": 1524,
      "tt": 1525,
      "delle": 1526,
      "questo": 1527,
      "nella": 1528,
      "dere": 1529,
      "anno": 1530,
      "dell": 1531,
      "uni": 1532,
      "bbe": 1533,
      "anti": 1534,
      "ene": 1535,
      "gio": 1536,
      "uto": 1537,
      "qual": 1538,
      "glia": 1539,
      "quando": 1540,
      "tutto": 1541,
      "glio": 1542,
      "zioni": 1543,
      "cam": 1544,
      "esso": 1545,
      "ss": 1546,
      "mol": 1547,
      "loro": 1548,
      "perché": 1549,
      "cosa": 1550,
      "due": 1551,
      "poi": 1552,
      "sco": 1553,
      "cco": 1554,
      "gna": 1555,
      "tem": 1556,
      "prima": 1557,
      "così": 1558,
      "essere": 1559,
      "ani": 1560,
      "bra": 1561,
      "rio": 1562,
      "anco": 1563,
      "cui": 1564,
      "spi": 1565,
      "via": 1566,
      "gior": 1567,
      "bile": 1568,
      "ggio": 1569,
      "mai": 1570,
      "tare": 1571,
      "indi": 1572,
      "rebbe": 1573,
      "senza": 1574,
      "zio": 1575,
      "tutti": 1576,
      "stato": 1577,
      "zia": 1578,
      "dalla": 1579,
      "mia": 1580,
      "vita": 1581,
      "quella": 1582,
      "qua": 1583,
      "dove": 1584,
      "allo": 1585,
      "sempre": 1586,
      "zzo": 1587,
      "sia": 1588,
      "dopo": 1589,
      "porta": 1590,
      "ccia": 1591,
      "erano": 1592,
      "anni": 1593,
      "chia": 1594,
      "enza": 1595,
      "propri": 1596,
      "anda": 1597,
      "cca": 1598,
      "occhi": 1599,
      "questa": 1600,
      "ffi": 1601,
      "ron": 1602,
      "mio": 1603,
      "ris": 1604,
      "ogni": 1605,
      "rin": 1606,
      "far": 1607,
      "menti": 1608,
      "ancora": 1609,
      "fatto": 1610,
      "mani": 1611,
      "senti": 1612,
      "pra": 1613,
      "tempo": 1614,
      "essi": 1615,
      "bbi": 1616,
      "lare": 1617,
      "pers": 1618,
      "sor": 1619,
      "anza": 1620,
      "pie": 1621,
      "verso": 1622,
      "altro": 1623,
      "tato": 1624,
      "cato": 1625,
      "ato": 1626,
      "volta": 1627,
      "cc": 1628,
      "fare": 1629,
      "ciò": 1630,
      "bili": 1631,
      "nuo": 1632,
      "quello": 1633,
      "colo": 1634,
      "ppo": 1635,
      "trova": 1636,
      "ore": 1637,
      "rono": 1638,
      "molto": 1639,
      "almente": 1640,
      "sca": 1641,
      "vole": 1642,
      "tali": 1643,
      "sulla": 1644,
      "sce": 1645,
      "meno": 1646,
      "anto": 1647,
      "pun": 1648,
      "stu": 1649,
      "capi": 1650,
      "giu": 1651,
      "mini": 1652,
      "pia": 1653,
      "lavo": 1654,
      "vero": 1655,
      "rsi": 1656,
      "altri": 1657,
      "scia": 1658,
      "suoi": 1659,
      "glie": 1660,
      "sotto": 1661,
      "bene": 1662,
      "scri": 1663,
      "tale": 1664,
      "degli": 1665,
      "alc": 1666,
      "uomo": 1667,
      "pel": 1668,
      "pote": 1669,
      "essa": 1670,
      "scu": 1671,
      "signo": 1672,
      "stro": 1673,
      "uti": 1674,
      "sione": 1675,
      "gre": 1676,
      "fini": 1677,
      "lun": 1678,
      "esi": 1679,
      "passa": 1680,
      "rà": 1681,
      "mentre": 1682,
      "hanno": 1683,
      "usci": 1684,
      "gia": 1685,
      "già": 1686,
      "mina": 1687,
      "tica": 1688,
      "giorno": 1689,
      "esse": 1690,
      "modo": 1691,
      "spa": 1692,
      "proprio": 1693,
      "ori": 1694,
      "contro": 1695,
      "stru": 1696,
      "diven": 1697,
      "disse": 1698,
      "rato": 1699,
      "noi": 1700,
      "vere": 1701,
      "può": 1702,
      "dice": 1703,
      "cci": 1704,
      "secon": 1705,
      "ccio": 1706,
      "qualche": 1707,
      "tutta": 1708,
      "gg": 1709,
      "mondo": 1710,
      "forma": 1711,
      "mma": 1712,
      "pensa": 1713,
      "deva": 1714,
      "fosse": 1715,
      "sopra": 1716,
      "tamente": 1717,
      "ness": 1718,
      "quanto": 1719,
      "raga": 1720,
      "unque": 1721,
      "care": 1722,
      "stre": 1723,
      "grande": 1724,
      "picco": 1725,
      "guarda": 1726,
      "nell": 1727,
      "possi": 1728,
      "presen": 1729,
      "rò": 1730,
      "paro": 1731,
      "tua": 1732,
      "vin": 1733,
      "ane": 1734,
      "stesso": 1735,
      "dav": 1736,
      "nei": 1737,
      "nelle": 1738,
      "ghi": 1739,
      "pio": 1740,
      "lato": 1741,
      "sid": 1742,
      "fine": 1743,
      "fuo": 1744,
      "quasi": 1745,
      "ulti": 1746,
      "ito": 1747,
      "sue": 1748,
      "fil": 1749,
      "allora": 1750,
      "veni": 1751,
      "tano": 1752,
      "ello": 1753,
      "ão": 1754,
      "não": 1755,
      "uma": 1756,
      "ela": 1757,
      "lh": 1758,
      "ção": 1759,
      "cê": 1760,
      "inha": 1761,
      "você": 1762,
      "ec": 1763,
      "dade": 1764,
      "ao": 1765,
      "ram": 1766,
      "vel": 1767,
      "ém": 1768,
      "pode": 1769,
      "estava": 1770,
      "isso": 1771,
      "mui": 1772,
      "faz": 1773,
      "ões": 1774,
      "pes": 1775,
      "ix": 1776,
      "sim": 1777,
      "olh": 1778,
      "isa": 1779,
      "ên": 1780,
      "tinha": 1781,
      "meu": 1782,
      "são": 1783,
      "minha": 1784,
      "muito": 1785,
      "foi": 1786,
      "bem": 1787,
      "diz": 1788,
      "parec": 1789,
      "ço": 1790,
      "pesso": 1791,
      "pois": 1792,
      "mesmo": 1793,
      "ções": 1794,
      "seus": 1795,
      "até": 1796,
      "ência": 1797,
      "lhe": 1798,
      "tiv": 1799,
      "mã": 1800,
      "só": 1801,
      "tão": 1802,
      "tudo": 1803,
      "então": 1804,
      "inda": 1805,
      "bal": 1806,
      "indo": 1807,
      "ndo": 1808,
      "já": 1809,
      "vam": 1810,
      "eito": 1811,
      "depois": 1812,
      "mel": 1813,
      "lha": 1814,
      "ainda": 1815,
      "fazer": 1816,
      "pou": 1817,
      "pergun": 1818,
      "deix": 1819,
      "tamb": 1820,
      "ala": 1821,
      "pelo": 1822,
      "também": 1823,
      "fica": 1824,
      "prec": 1825,
      "eles": 1826,
      "havia": 1827,
      "lá": 1828,
      "nas": 1829,
      "gem": 1830,
      "mem": 1831,
      "ós": 1832,
      "deu": 1833,
      "eiro": 1834,
      "..": 1835,
      "assim": 1836,
      "ior": 1837,
      "har": 1838,
      "aqui": 1839,
      "cul": 1840,
      "sar": 1841,
      "outra": 1842,
      "olhos": 1843,
      "ima": 1844,
      "mim": 1845,
      "ago": 1846,
      "pessoas": 1847,
      "eram": 1848,
      "eira": 1849,
      "pela": 1850,
      "coisa": 1851,
      "mão": 1852,
      "conh": 1853,
      "agora": 1854,
      "iam": 1855,
      "há": 1856,
      "suas": 1857,
      "guém": 1858,
      "cabe": 1859,
      "nem": 1860,
      "ível": 1861,
      "consegu": 1862,
      "trabal": 1863,
      "lev": 1864,
      "lem": 1865,
      "vai": 1866,
      "tei": 1867,
      "pró": 1868,
      "quem": 1869,
      "onde": 1870,
      "cabeça": 1871,
      "nunca": 1872,
      "mentos": 1873,
      "hum": 1874,
      "dele": 1875,
      "verdade": 1876,
      "tá": 1877,
      "hos": 1878,
      "algum": 1879,
      "dizer": 1880,
      "penas": 1881,
      "nós": 1882,
      "enquanto": 1883,
      "outro": 1884,
      "lho": 1885,
      "melhor": 1886,
      "primei": 1887,
      "iu": 1888,
      "apenas": 1889,
      "estou": 1890,
      "conte": 1891,
      "homem": 1892,
      "dois": 1893,
      "ças": 1894,
      "pouco": 1895,
      "senhor": 1896,
      "tando": 1897,
      "espera": 1898,
      "pai": 1899,
      "rios": 1900,
      "baix": 1901,
      "ase": 1902,
      "isas": 1903,
      "hora": 1904,
      "ficar": 1905,
      "seja": 1906,
      "ân": 1907,
      "clar": 1908,
      "inc": 1909,
      "fos": 1910,
      "ouvi": 1911,
      "vem": 1912,
      "tava": 1913,
      "ário": 1914,
      "sos": 1915,
      "inho": 1916,
      "rando": 1917,
      "ês": 1918,
      "coisas": 1919,
      "aconte": 1920,
      "lher": 1921,
      "anos": 1922,
      "talvez": 1923,
      "estão": 1924,
      "liv": 1925,
      "outros": 1926,
      "qualquer": 1927,
      "gou": 1928,
      "lí": 1929,
      "tivesse": 1930,
      "rado": 1931,
      "precisa": 1932,
      "mãe": 1933,
      "dela": 1934,
      "entra": 1935,
      "maior": 1936,
      "noite": 1937,
      "tiva": 1938,
      "pala": 1939,
      "ração": 1940,
      "deus": 1941,
      "sas": 1942,
      "inte": 1943,
      "fei": 1944,
      "palav": 1945,
      "trás": 1946,
      "cidade": 1947,
      "lugar": 1948,
      "vezes": 1949,
      "encontra": 1950,
      "tru": 1951,
      "eci": 1952,
      "ın": 1953,
      "bir": 1954,
      "yor": 1955,
      "ek": 1956,
      "dı": 1957,
      "ey": 1958,
      "tı": 1959,
      "mı": 1960,
      "iz": 1961,
      "ır": 1962,
      "gö": 1963,
      "sı": 1964,
      "bil": 1965,
      "lı": 1966,
      "üz": 1967,
      "iç": 1968,
      "iy": 1969,
      "ım": 1970,
      "uz": 1971,
      "cak": 1972,
      "iş": 1973,
      "ını": 1974,
      "iyor": 1975,
      "baş": 1976,
      "dü": 1977,
      "değ": 1978,
      "kar": 1979,
      "ev": 1980,
      "öy": 1981,
      "bun": 1982,
      "yap": 1983,
      "sun": 1984,
      "gör": 1985,
      "yı": 1986,
      "ki": 1987,
      "ara": 1988,
      "alı": 1989,
      "onu": 1990,
      "çı": 1991,
      "şey": 1992,
      "sın": 1993,
      "kı": 1994,
      "kad": 1995,
      "ağ": 1996,
      "değil": 1997,
      "ük": 1998,
      "çok": 1999,
      "şı": 2000,
      "ül": 2001,
      "için": 2002,
      "eye": 2003,
      "oldu": 2004,
      "mış": 2005,
      "kal": 2006,
      "mek": 2007,
      "öyle": 2008,
      "yordu": 2009,
      "yüz": 2010,
      "miş": 2011,
      "mak": 2012,
      "ola": 2013,
      "yan": 2014,
      "cek": 2015,
      "yorum": 2016,
      "bak": 2017,
      "üm": 2018,
      "ları": 2019,
      "oğ": 2020,
      "kadar": 2021,
      "arı": 2022,
      "ında": 2023,
      "gün": 2024,
      "yok": 2025,
      "yer": 2026,
      "dım": 2027,
      "daha": 2028,
      "ına": 2029,
      "dim": 2030,
      "bilir": 2031,
      "iki": 2032,
      "siz": 2033,
      "diğ": 2034,
      "bü": 2035,
      "düş": 2036,
      "üç": 2037,
      "unu": 2038,
      "aman": 2039,
      "fak": 2040,
      "ede": 2041,
      "sonra": 2042,
      "hiç": 2043,
      "aki": 2044,
      "ğı": 2045,
      "bul": 2046,
      "maz": 2047,
      "anla": 2048,
      "bura": 2049,
      "geç": 2050,
      "maya": 2051,
      "konu": 2052,
      "din": 2053,
      "tek": 2054,
      "zaman": 2055,
      "eler": 2056,
      "öz": 2057,
      "dır": 2058,
      "gibi": 2059,
      "şa": 2060,
      "leri": 2061,
      "kim": 2062,
      "ku": 2063,
      "fakat": 2064,
      "yar": 2065,
      "göz": 2066,
      "cı": 2067,
      "yorsun": 2068,
      "bek": 2069,
      "inde": 2070,
      "pek": 2071,
      "bunu": 2072,
      "lik": 2073,
      "iler": 2074,
      "edi": 2075,
      "öl": 2076,
      "sür": 2077,
      "sır": 2078,
      "çık": 2079,
      "sıl": 2080,
      "alar": 2081,
      "kes": 2082,
      "yak": 2083,
      "çek": 2084,
      "yıl": 2085,
      "ecek": 2086,
      "ız": 2087,
      "git": 2088,
      "kap": 2089,
      "ama": 2090,
      "ıl": 2091,
      "ların": 2092,
      "biz": 2093,
      "tır": 2094,
      "oy": 2095,
      "ancak": 2096,
      "doğ": 2097,
      "bana": 2098,
      "şim": 2099,
      "başla": 2100,
      "lü": 2101,
      "madı": 2102,
      "beni": 2103,
      "yük": 2104,
      "lık": 2105,
      "beş": 2106,
      "nasıl": 2107,
      "tık": 2108,
      "tür": 2109,
      "daki": 2110,
      "ceğ": 2111,
      "zı": 2112,
      "iyi": 2113,
      "dok": 2114,
      "benim": 2115,
      "cağ": 2116,
      "yen": 2117,
      "şu": 2118,
      "mez": 2119,
      "düşün": 2120,
      "kendi": 2121,
      "şimdi": 2122,
      "yol": 2123,
      "yu": 2124,
      "iste": 2125,
      "sek": 2126,
      "mam": 2127,
      "söyle": 2128,
      "dik": 2129,
      "kur": 2130,
      "olduğ": 2131,
      "sını": 2132,
      "biliyor": 2133,
      "kan": 2134,
      "yal": 2135,
      "meye": 2136,
      "muş": 2137,
      "kaç": 2138,
      "iye": 2139,
      "tü": 2140,
      "ef": 2141,
      "tım": 2142,
      "evet": 2143,
      "yet": 2144,
      "burada": 2145,
      "tim": 2146,
      "biraz": 2147,
      "kor": 2148,
      "doğru": 2149,
      "inin": 2150,
      "kız": 2151,
      "diye": 2152,
      "dör": 2153,
      "etti": 2154,
      "onun": 2155,
      "isti": 2156,
      "ği": 2157,
      "sana": 2158,
      "üş": 2159,
      "arka": 2160,
      "hayır": 2161,
      "karşı": 2162,
      "ile": 2163,
      "hak": 2164,
      "ıyor": 2165,
      "neden": 2166,
      "sev": 2167,
      "sız": 2168,
      "çocu": 2169,
      "çalı": 2170,
      "olur": 2171,
      "bır": 2172,
      "gir": 2173,
      "ise": 2174,
      "ih": 2175,
      "kır": 2176,
      "dön": 2177,
      "böyle": 2178,
      "seni": 2179,
      "!\"": 2180,
      "dört": 2181,
      "söy": 2182,
      "oş": 2183,
      "musun": 2184,
      "laş": 2185,
      "ip": 2186,
      "kay": 2187,
      "hem": 2188,
      "büyük": 2189,
      "aç": 2190,
      "bırak": 2191,
      "misin": 2192,
      "söz": 2193,
      "değiş": 2194,
      "ünü": 2195,
      "gül": 2196,
      "kö": 2197,
      "karı": 2198,
      "tamam": 2199,
      "olu": 2200,
      "yeni": 2201,
      "lam": 2202,
      "mıştı": 2203,
      "yaş": 2204,
      "iniz": 2205,
      "kadın": 2206,
      "bunun": 2207,
      "mey": 2208,
      "altı": 2209,
      "yi": 2210,
      "inden": 2211,
      "senin": 2212,
      "yat": 2213,
      "top": 2214,
      "isi": 2215,
      "dün": 2216,
      "hiçbir": 2217,
      "yon": 2218,
      "dın": 2219,
      "tün": 2220,
      "başka": 2221,
      "hep": 2222,
      "irmi": 2223,
      "devam": 2224,
      "olacak": 2225,
      "artık": 2226,
      "durum": 2227,
      "imiz": 2228,
      "üzel": 2229,
      "lerini": 2230,
      "sağ": 2231,
      "gerek": 2232,
      "yirmi": 2233,
      "şek": 2234,
      "bağ": 2235,
      "lara": 2236,
      "yür": 2237,
      "ması": 2238,
      "katı": 2239,
      "dedi": 2240,
      "gü": 2241,
      "sorun": 2242,
      "üne": 2243,
      "mız": 2244,
      "yapı": 2245,
      "mil": 2246,
      "ğını": 2247,
      "tara": 2248,
      "vardı": 2249,
      "konuş": 2250,
      "arak": 2251,
      "larak": 2252,
      "çocuk": 2253,
      "bütün": 2254,
      "ley": 2255,
      "dür": 2256,
      "güzel": 2257,
      "ayı": 2258,
      "yapa": 2259,
      "nı": 2260,
      "ayr": 2261,
      "öne": 2262,
      "yordum": 2263,
      "ban": 2264,
      "i̇ş": 2265,
      "dum": 2266,
      "yorlar": 2267,
      "larını": 2268,
      "çıkar": 2269,
      "zan": 2270,
      "seç": 2271,
      "liyor": 2272,
      "tak": 2273,
      "şık": 2274,
      "tekrar": 2275,
      "aş": 2276,
      "eş": 2277,
      "mişti": 2278,
      "kin": 2279,
      "imi": 2280,
      "eğ": 2281,
      "gidi": 2282,
      "leş": 2283,
      "başladı": 2284,
      "gide": 2285,
      "otur": 2286,
      "dde": 2287,
      "ından": 2288,
      "üzer": 2289,
      "ının": 2290,
      "nız": 2291,
      "uy": 2292,
      "yedi": 2293,
      "kat": 2294,
      "olarak": 2295,
      "ladı": 2296,
      "yalnız": 2297,
      "bah": 2298,
      "iyet": 2299,
      "sak": 2300,
      "açık": 2301,
      "sında": 2302,
      "...": 2303,
      "insan": 2304,
      "aynı": 2305,
      "eder": 2306,
      "istan": 2307,
      "uzun": 2308,
      "geri": 2309,
      "erek": 2310,
      "olan": 2311,
      "gerçek": 2312,
      "alan": 2313,
      "dış": 2314,
      "alık": 2315,
      "fark": 2316,
      "üst": 2317,
      "sade": 2318,
      "kiş": 2319,
      "ldı": 2320,
      "zor": 2321,
      "etir": 2322,
      "herkes": 2323,
      "ömer": 2324,
      "unda": 2325,
      "haf": 2326,
      "buna": 2327,
      "ydı": 2328,
      "peki": 2329,
      "adam": 2330,
      "haz": 2331,
      "sına": 2332,
      "kapı": 2333,
      "görüş": 2334,
      "sadece": 2335,
      "aldı": 2336,
      "geldi": 2337,
      "rz": 2338,
      "sz": 2339,
      "cz": 2340,
      "ię": 2341,
      "dz": 2342,
      "ał": 2343,
      "się": 2344,
      "rze": 2345,
      "że": 2346,
      "wy": 2347,
      "rzy": 2348,
      "ła": 2349,
      "ło": 2350,
      "ny": 2351,
      "dzie": 2352,
      "dzi": 2353,
      "czy": 2354,
      "cie": 2355,
      "prze": 2356,
      "dy": 2357,
      "kie": 2358,
      "ry": 2359,
      "ją": 2360,
      "ów": 2361,
      "przy": 2362,
      "mie": 2363,
      "szy": 2364,
      "cze": 2365,
      "bie": 2366,
      "cy": 2367,
      "nia": 2368,
      "ści": 2369,
      "sze": 2370,
      "jest": 2371,
      "ży": 2372,
      "ną": 2373,
      "któ": 2374,
      "ała": 2375,
      "mnie": 2376,
      "ły": 2377,
      "cza": 2378,
      "jak": 2379,
      "roz": 2380,
      "ró": 2381,
      "zna": 2382,
      "łu": 2383,
      "ść": 2384,
      "wia": 2385,
      "wszy": 2386,
      "spo": 2387,
      "gdy": 2388,
      "wał": 2389,
      "wię": 2390,
      "łem": 2391,
      "ję": 2392,
      "sk": 2393,
      "rę": 2394,
      "dob": 2395,
      "już": 2396,
      "bę": 2397,
      "ałem": 2398,
      "sza": 2399,
      "pod": 2400,
      "dla": 2401,
      "pan": 2402,
      "nę": 2403,
      "może": 2404,
      "śli": 2405,
      "ało": 2406,
      "lko": 2407,
      "nych": 2408,
      "powie": 2409,
      "cię": 2410,
      "tylko": 2411,
      "naj": 2412,
      "tego": 2413,
      "ski": 2414,
      "nego": 2415,
      "wszyst": 2416,
      "szcze": 2417,
      "jed": 2418,
      "jej": 2419,
      "two": 2420,
      "ąd": 2421,
      "śmy": 2422,
      "czę": 2423,
      "wać": 2424,
      "jego": 2425,
      "ża": 2426,
      "sy": 2427,
      "praw": 2428,
      "tym": 2429,
      "który": 2430,
      "ały": 2431,
      "trze": 2432,
      "niej": 2433,
      "nym": 2434,
      "gło": 2435,
      "jąc": 2436,
      "mówi": 2437,
      "ska": 2438,
      "nej": 2439,
      "słu": 2440,
      "wła": 2441,
      "będzie": 2442,
      "dę": 2443,
      "pó": 2444,
      "bez": 2445,
      "nic": 2446,
      "pła": 2447,
      "ście": 2448,
      "są": 2449,
      "trzy": 2450,
      "kiem": 2451,
      "był": 2452,
      "mog": 2453,
      "robi": 2454,
      "tam": 2455,
      "mię": 2456,
      "zy": 2457,
      "pew": 2458,
      "myś": 2459,
      "przed": 2460,
      "sko": 2461,
      "które": 2462,
      "lę": 2463,
      "wsze": 2464,
      "ąc": 2465,
      "było": 2466,
      "sobie": 2467,
      "py": 2468,
      "cią": 2469,
      "jeszcze": 2470,
      "tę": 2471,
      "czas": 2472,
      "szę": 2473,
      "gł": 2474,
      "kę": 2475,
      "czu": 2476,
      "przez": 2477,
      "sło": 2478,
      "wz": 2479,
      "kto": 2480,
      "ków": 2481,
      "czo": 2482,
      "liśmy": 2483,
      "więc": 2484,
      "rą": 2485,
      "wó": 2486,
      "rza": 2487,
      "ności": 2488,
      "wet": 2489,
      "nął": 2490,
      "śmie": 2491,
      "nawet": 2492,
      "musi": 2493,
      "swo": 2494,
      "tej": 2495,
      "wą": 2496,
      "wu": 2497,
      "wią": 2498,
      "niu": 2499,
      "czą": 2500,
      "dzo": 2501,
      "skie": 2502,
      "jeśli": 2503,
      "czego": 2504,
      "chy": 2505,
      "dł": 2506,
      "tych": 2507,
      "bym": 2508,
      "żo": 2509,
      "eś": 2510,
      "sią": 2511,
      "kiedy": 2512,
      "wró": 2513,
      "dze": 2514,
      "dro": 2515,
      "rów": 2516,
      "pani": 2517,
      "kul": 2518,
      "nad": 2519,
      "chwi": 2520,
      "nim": 2521,
      "być": 2522,
      "chodzi": 2523,
      "nio": 2524,
      "dobrze": 2525,
      "teraz": 2526,
      "wokul": 2527,
      "coś": 2528,
      "kł": 2529,
      "pier": 2530,
      "gdzie": 2531,
      "dzy": 2532,
      "pię": 2533,
      "dź": 2534,
      "ką": 2535,
      "gó": 2536,
      "zda": 2537,
      "chce": 2538,
      "stę": 2539,
      "świa": 2540,
      "wszystko": 2541,
      "peł": 2542,
      "wiem": 2543,
      "wiel": 2544,
      "każ": 2545,
      "rzu": 2546,
      "sły": 2547,
      "jedna": 2548,
      "myśl": 2549,
      "mój": 2550,
      "jestem": 2551,
      "óż": 2552,
      "miej": 2553,
      "moż": 2554,
      "kła": 2555,
      "resz": 2556,
      "dłu": 2557,
      "stwo": 2558,
      "nię": 2559,
      "masz": 2560,
      "żeby": 2561,
      "niem": 2562,
      "jakie": 2563,
      "sty": 2564,
      "nią": 2565,
      "wej": 2566,
      "oj": 2567,
      "sła": 2568,
      "ność": 2569,
      "zło": 2570,
      "szczę": 2571,
      "lej": 2572,
      "wego": 2573,
      "cał": 2574,
      "dział": 2575,
      "kich": 2576,
      "dza": 2577,
      "dzię": 2578,
      "oczy": 2579,
      "zosta": 2580,
      "czło": 2581,
      "nam": 2582,
      "kil": 2583,
      "szu": 2584,
      "wę": 2585,
      "miał": 2586,
      "strze": 2587,
      "cej": 2588,
      "ej": 2589,
      "znaj": 2590,
      "dać": 2591,
      "miejs": 2592,
      "kró": 2593,
      "kry": 2594,
      "bardzo": 2595,
      "śnie": 2596,
      "lą": 2597,
      "gie": 2598,
      "ciebie": 2599,
      "dni": 2600,
      "potrze": 2601,
      "wokulski": 2602,
      "uwa": 2603,
      "umie": 2604,
      "jednak": 2605,
      "kra": 2606,
      "wróci": 2607,
      "człowie": 2608,
      "czyć": 2609,
      "była": 2610,
      "żeli": 2611,
      "mę": 2612,
      "cę": 2613,
      "zrobi": 2614,
      "mogę": 2615,
      "prowa": 2616,
      "rem": 2617,
      "niech": 2618,
      "cznie": 2619,
      "kro": 2620,
      "tą": 2621,
      "chci": 2622,
      "bro": 2623,
      "dzieć": 2624,
      "szą": 2625,
      "pad": 2626,
      "trz": 2627,
      "jem": 2628,
      "tów": 2629,
      "dru": 2630,
      "taj": 2631,
      "rzekł": 2632,
      "niego": 2633,
      "takie": 2634,
      "wała": 2635,
      "towa": 2636,
      "kapła": 2637,
      "widzi": 2638,
      "podob": 2639,
      "dzę": 2640,
      "tał": 2641,
      "stęp": 2642,
      "bą": 2643,
      "poko": 2644,
      "wem": 2645,
      "gę": 2646,
      "aby": 2647,
      "albo": 2648,
      "spra": 2649,
      "zno": 2650,
      "smo": 2651,
      "jesz": 2652,
      "księ": 2653,
      "jesteś": 2654,
      "poz": 2655,
      "nigdy": 2656,
      "ksią": 2657,
      "cóż": 2658,
      "ws": 2659,
      "pow": 2660,
      "tka": 2661,
      "świe": 2662,
      "szka": 2663,
      "samo": 2664,
      "sł": 2665,
      "rzę": 2666,
      "nale": 2667,
      "chcesz": 2668,
      "nik": 2669,
      "pę": 2670,
      "chyba": 2671,
      "ciąg": 2672,
      "jący": 2673,
      "woj": 2674,
      "nasze": 2675,
      "mniej": 2676,
      "więcej": 2677,
      "zwy": 2678,
      "osta": 2679,
      "waż": 2680,
      "śmier": 2681,
      "wier": 2682,
      "dzą": 2683,
      "zaś": 2684,
      "gdyby": 2685,
      "jaki": 2686,
      "wol": 2687,
      "win": 2688,
      "dą": 2689,
      "ścia": 2690,
      "rozma": 2691,
      "wal": 2692,
      "panie": 2693,
      "star": 2694,
      "kaz": 2695,
      "jeżeli": 2696,
      "wra": 2697,
      "koń": 2698,
      "siebie": 2699,
      "znowu": 2700,
      "czem": 2701,
      "stwa": 2702,
      "isto": 2703,
      "pół": 2704,
      "dał": 2705,
      "kobie": 2706,
      "ałam": 2707,
      "wych": 2708,
      "cesa": 2709,
      "nich": 2710,
      "zawsze": 2711,
      "dzić": 2712,
      "też": 2713,
      "lepie": 2714,
      "proszę": 2715,
      "kre": 2716,
      "twa": 2717,
      "łą": 2718,
      "chu": 2719,
      "cą": 2720,
      "prz": 2721,
      "łe": 2722,
      "szedł": 2723,
      "odpowie": 2724,
      "myśli": 2725,
      "świą": 2726,
      "ź": 2727,
      "ł": 2728,
      "&": 2729,
      "=": 2730,
      "ă": 2731,
      "đ": 2732,
      "ţ": 2733,
      "–": 2734,
      "‘": 2735,
      "ij": 2736,
      "aa": 2737,
      "een": 2738,
      "het": 2739,
      "aar": 2740,
      "oor": 2741,
      "ijn": 2742,
      "dat": 2743,
      "oe": 2744,
      "ijk": 2745,
      "aan": 2746,
      "voor": 2747,
      "iet": 2748,
      "zijn": 2749,
      "niet": 2750,
      "oo": 2751,
      "moet": 2752,
      "heb": 2753,
      "uit": 2754,
      "wij": 2755,
      "aat": 2756,
      "lijk": 2757,
      "sl": 2758,
      "daar": 2759,
      "deze": 2760,
      "worden": 2761,
      "moeten": 2762,
      "onder": 2763,
      "hebben": 2764,
      "ook": 2765,
      "ct": 2766,
      "nog": 2767,
      "aal": 2768,
      "eer": 2769,
      "bij": 2770,
      "mijn": 2771,
      "kom": 2772,
      "atie": 2773,
      "eft": 2774,
      "kel": 2775,
      "rij": 2776,
      "heid": 2777,
      "af": 2778,
      "stel": 2779,
      "maar": 2780,
      "wee": 2781,
      "heeft": 2782,
      "waar": 2783,
      "eren": 2784,
      "wat": 2785,
      "wil": 2786,
      "aag": 2787,
      "bet": 2788,
      "hij": 2789,
      "kun": 2790,
      "uw": 2791,
      "dt": 2792,
      "door": 2793,
      "tij": 2794,
      "ond": 2795,
      "geen": 2796,
      "gev": 2797,
      "veel": 2798,
      "naar": 2799,
      "aten": 2800,
      "kunnen": 2801,
      "echt": 2802,
      "goe": 2803,
      "twee": 2804,
      "delijk": 2805,
      "uur": 2806,
      "toe": 2807,
      "meer": 2808,
      "onze": 2809,
      "tijd": 2810,
      "hoe": 2811,
      "tot": 2812,
      "zou": 2813,
      "aak": 2814,
      "amen": 2815,
      "woor": 2816,
      "wordt": 2817,
      "gelijk": 2818,
      "gaan": 2819,
      "ker": 2820,
      "eld": 2821,
      "hou": 2822,
      "zel": 2823,
      "tegen": 2824,
      "komen": 2825,
      "werk": 2826,
      "goed": 2827,
      "zal": 2828,
      "zij": 2829,
      "slag": 2830,
      "zien": 2831,
      "echter": 2832,
      "itie": 2833,
      "tie": 2834,
      "elijk": 2835,
      "ische": 2836,
      "belan": 2837,
      "haar": 2838,
      "vr": 2839,
      "grijk": 2840,
      "doen": 2841,
      "land": 2842,
      "belangrijk": 2843,
      "open": 2844,
      "ctie": 2845,
      "zelf": 2846,
      "mij": 2847,
      "iteit": 2848,
      "stem": 2849,
      "mee": 2850,
      "aren": 2851,
      "dien": 2852,
      "gaat": 2853,
      "prob": 2854,
      "moe": 2855,
      "ullen": 2856,
      "zich": 2857,
      "daarom": 2858,
      "orm": 2859,
      "staat": 2860,
      "zit": 2861,
      "dui": 2862,
      "dus": 2863,
      "ds": 2864,
      "verslag": 2865,
      "kelijk": 2866,
      "proble": 2867,
      "schap": 2868,
      "gd": 2869,
      "hun": 2870,
      "erd": 2871,
      "zet": 2872,
      "staan": 2873,
      "maal": 2874,
      "inder": 2875,
      "eid": 2876,
      "kken": 2877,
      "ged": 2878,
      "zullen": 2879,
      "mensen": 2880,
      "jaar": 2881,
      "regel": 2882,
      "ieder": 2883,
      "volgen": 2884,
      "geven": 2885,
      "even": 2886,
      "blij": 2887,
      "ië": 2888,
      "uwe": 2889,
      "maken": 2890,
      "oek": 2891,
      "nieuwe": 2892,
      "baar": 2893,
      "andere": 2894,
      "ruik": 2895,
      "agen": 2896,
      "ouw": 2897,
      "willen": 2898,
      "aakt": 2899,
      "hoo": 2900,
      "anden": 2901,
      "lig": 2902,
      "samen": 2903,
      "zeer": 2904,
      "duidelijk": 2905,
      "antwoor": 2906,
      "heel": 2907,
      "punt": 2908,
      "houden": 2909,
      "vraag": 2910,
      "gele": 2911,
      "eens": 2912,
      "besch": 2913,
      "omen": 2914,
      "erg": 2915,
      "doel": 2916,
      "dag": 2917,
      "uren": 2918,
      "ings": 2919,
      "oren": 2920,
      "delen": 2921,
      "steun": 2922,
      "innen": 2923,
      "pol": 2924,
      "oon": 2925,
      "sn": 2926,
      "zonder": 2927,
      "nodig": 2928,
      "alleen": 2929,
      "mid": 2930,
      "ragen": 2931,
      "iets": 2932,
      "versch": 2933,
      "gebruik": 2934,
      "rouw": 2935,
      "stellen": 2936,
      "menten": 2937,
      "eerste": 2938,
      "laat": 2939,
      "groot": 2940,
      "ood": 2941,
      "toch": 2942,
      "laten": 2943,
      "aard": 2944,
      "sle": 2945,
      "deel": 2946,
      "plaat": 2947,
      "ree": 2948,
      "betre": 2949,
      "lid": 2950,
      "uiten": 2951,
      "racht": 2952,
      "beleid": 2953,
      "stie": 2954,
      "staten": 2955,
      "ggen": 2956,
      "reken": 2957,
      "alen": 2958,
      "ming": 2959,
      "mogelijk": 2960,
      "grote": 2961,
      "altijd": 2962,
      "enkel": 2963,
      "wik": 2964,
      "politie": 2965,
      "elk": 2966,
      "handel": 2967,
      "kwe": 2968,
      "maat": 2969,
      "elen": 2970,
      "vrij": 2971,
      "jes": 2972,
      "aam": 2973,
      "huis": 2974,
      "weer": 2975,
      "lidstaten": 2976,
      "king": 2977,
      "kle": 2978,
      "bed": 2979,
      "geval": 2980,
      "wikkel": 2981,
      "kwestie": 2982,
      "stee": 2983,
      "hel": 2984,
      "komst": 2985,
      "iden": 2986,
      "eerd": 2987,
      "tweede": 2988,
      "probleem": 2989,
      "ussen": 2990,
      "snel": 2991,
      "tig": 2992,
      "ult": 2993,
      "nemen": 2994,
      "commis": 2995,
      "verschil": 2996,
      "zoek": 2997,
      "krij": 2998,
      "graag": 2999,
      "denk": 3000,
      "landen": 3001,
      "reden": 3002,
      "besl": 3003,
      "oeg": 3004,
      "beter": 3005,
      "heden": 3006,
      "mag": 3007,
      "boven": 3008,
      "cont": 3009,
      "fd": 3010,
      "hele": 3011,
      "vier": 3012,
      "gez": 3013,
      "kw": 3014,
      "aas": 3015,
      "ontwikkel": 3016,
      "drie": 3017,
      "vaak": 3018,
      "plaats": 3019,
      "gang": 3020,
      "ijf": 3021,
      "natuur": 3022,
      "tussen": 3023,
      "bat": 3024,
      "komt": 3025,
      "wacht": 3026,
      "aad": 3027,
      "achter": 3028,
      "gebie": 3029,
      "verk": 3030,
      "ligt": 3031,
      "nieuw": 3032,
      "vand": 3033,
      "ý": 3034,
      "ď": 3035,
      "ě": 3036,
      "ř": 3037,
      "ť": 3038,
      "ů": 3039,
      "„": 3040,
      "ní": 3041,
      "ně": 3042,
      "ře": 3043,
      "ná": 3044,
      "vě": 3045,
      "vá": 3046,
      "rá": 3047,
      "vy": 3048,
      "mě": 3049,
      "ři": 3050,
      "ří": 3051,
      "že": 3052,
      "jí": 3053,
      "vý": 3054,
      "ji": 3055,
      "dě": 3056,
      "če": 3057,
      "tě": 3058,
      "ky": 3059,
      "še": 3060,
      "ké": 3061,
      "ší": 3062,
      "pře": 3063,
      "ví": 3064,
      "ný": 3065,
      "ži": 3066,
      "má": 3067,
      "cí": 3068,
      "zá": 3069,
      "ské": 3070,
      "dá": 3071,
      "byl": 3072,
      "tí": 3073,
      "pří": 3074,
      "při": 3075,
      "či": 3076,
      "vní": 3077,
      "ča": 3078,
      "dí": 3079,
      "dní": 3080,
      "ká": 3081,
      "nou": 3082,
      "vět": 3083,
      "pě": 3084,
      "kou": 3085,
      "ých": 3086,
      "bě": 3087,
      "prá": 3088,
      "jako": 3089,
      "ží": 3090,
      "zí": 3091,
      "jsou": 3092,
      "jsem": 3093,
      "lní": 3094,
      "cké": 3095,
      "vat": 3096,
      "před": 3097,
      "hla": 3098,
      "stá": 3099,
      "čí": 3100,
      "ši": 3101,
      "kla": 3102,
      "ště": 3103,
      "lou": 3104,
      "mů": 3105,
      "chá": 3106,
      "pů": 3107,
      "také": 3108,
      "dů": 3109,
      "nost": 3110,
      "tře": 3111,
      "sku": 3112,
      "vše": 3113,
      "tní": 3114,
      "byla": 3115,
      "ční": 3116,
      "jeho": 3117,
      "bý": 3118,
      "vání": 3119,
      "ných": 3120,
      "tři": 3121,
      "vz": 3122,
      "stře": 3123,
      "dva": 3124,
      "hle": 3125,
      "čá": 3126,
      "nosti": 3127,
      "vš": 3128,
      "hra": 3129,
      "jen": 3130,
      "slo": 3131,
      "však": 3132,
      "kdy": 3133,
      "bylo": 3134,
      "bude": 3135,
      "jší": 3136,
      "vých": 3137,
      "ním": 3138,
      "sm": 3139,
      "koli": 3140,
      "rů": 3141,
      "může": 3142,
      "není": 3143,
      "hod": 3144,
      "bí": 3145,
      "tý": 3146,
      "stě": 3147,
      "uje": 3148,
      "sá": 3149,
      "pět": 3150,
      "krá": 3151,
      "tom": 3152,
      "ství": 3153,
      "vně": 3154,
      "sed": 3155,
      "své": 3156,
      "pí": 3157,
      "musí": 3158,
      "už": 3159,
      "tím": 3160,
      "jící": 3161,
      "jedno": 3162,
      "čas": 3163,
      "čty": 3164,
      "ský": 3165,
      "evro": 3166,
      "toho": 3167,
      "hy": 3168,
      "kter": 3169,
      "rní": 3170,
      "stí": 3171,
      "svě": 3172,
      "pak": 3173,
      "všech": 3174,
      "ků": 3175,
      "ng": 3176,
      "ád": 3177,
      "chází": 3178,
      "být": 3179,
      "první": 3180,
      "mno": 3181,
      "ského": 3182,
      "pá": 3183,
      "nebo": 3184,
      "kem": 3185,
      "sla": 3186,
      "ného": 3187,
      "zde": 3188,
      "další": 3189,
      "řa": 3190,
      "čtyři": 3191,
      "hrá": 3192,
      "druh": 3193,
      "lně": 3194,
      "vla": 3195,
      "ských": 3196,
      "ško": 3197,
      "půso": 3198,
      "proto": 3199,
      "vů": 3200,
      "ská": 3201,
      "šest": 3202,
      "dně": 3203,
      "ještě": 3204,
      "mezi": 3205,
      "několi": 3206,
      "již": 3207,
      "čně": 3208,
      "slu": 3209,
      "zná": 3210,
      "sedm": 3211,
      "vlá": 3212,
      "osm": 3213,
      "byly": 3214,
      "vám": 3215,
      "cký": 3216,
      "tech": 3217,
      "ději": 3218,
      "velmi": 3219,
      "leži": 3220,
      "vala": 3221,
      "lý": 3222,
      "tvo": 3223,
      "spole": 3224,
      "stup": 3225,
      "mož": 3226,
      "evrop": 3227,
      "stal": 3228,
      "jde": 3229,
      "rodi": 3230,
      "její": 3231,
      "poli": 3232,
      "devět": 3233,
      "sme": 3234,
      "až": 3235,
      "této": 3236,
      "tento": 3237,
      "kaž": 3238,
      "nula": 3239,
      "bych": 3240,
      "moc": 3241,
      "stou": 3242,
      "kdo": 3243,
      "zd": 3244,
      "praco": 3245,
      "tomu": 3246,
      "ným": 3247,
      "živo": 3248,
      "zem": 3249,
      "násle": 3250,
      "sky": 3251,
      "jich": 3252,
      "měl": 3253,
      "děla": 3254,
      "jsme": 3255,
      "nice": 3256,
      "stej": 3257,
      "stní": 3258,
      "náro": 3259,
      "nit": 3260,
      "později": 3261,
      "tako": 3262,
      "nce": 3263,
      "čer": 3264,
      "ším": 3265,
      "něco": 3266,
      "vál": 3267,
      "řej": 3268,
      "krát": 3269,
      "ální": 3270,
      "asi": 3271,
      "které": 3272,
      "stav": 3273,
      "mají": 3274,
      "mys": 3275,
      "době": 3276,
      "sně": 3277,
      "zku": 3278,
      "tů": 3279,
      "chod": 3280,
      "spě": 3281,
      "jejich": 3282,
      "součas": 3283,
      "vali": 3284,
      "kte": 3285,
      "prů": 3286,
      "zení": 3287,
      "pat": 3288,
      "potře": 3289,
      "dnes": 3290,
      "zemí": 3291,
      "znam": 3292,
      "mám": 3293,
      "tedy": 3294,
      "hlavní": 3295,
      "použí": 3296,
      "bní": 3297,
      "vede": 3298,
      "lep": 3299,
      "jek": 3300,
      "prav": 3301,
      "politi": 3302,
      "dne": 3303,
      "čení": 3304,
      "než": 3305,
      "děl": 3306,
      "čo": 3307,
      "cích": 3308,
      "sté": 3309,
      "dlou": 3310,
      "několik": 3311,
      "vyu": 3312,
      "ckých": 3313,
      "nové": 3314,
      "čin": 3315,
      "dělá": 3316,
      "ký": 3317,
      "obla": 3318,
      "podle": 3319,
      "důleži": 3320,
      "poku": 3321,
      "kone": 3322,
      "dý": 3323,
      "dvě": 3324,
      "žád": 3325,
      "nout": 3326,
      "tku": 3327,
      "tvr": 3328,
      "ckého": 3329,
      "rov": 3330,
      "tele": 3331,
      "psa": 3332,
      "svět": 3333,
      "tivní": 3334,
      "dosta": 3335,
      "šel": 3336,
      "druhé": 3337,
      "skou": 3338,
      "žo": 3339,
      "jedná": 3340,
      "význam": 3341,
      "problé": 3342,
      "publi": 3343,
      "ván": 3344,
      "odpo": 3345,
      "podpo": 3346,
      "dle": 3347,
      "jaké": 3348,
      "šení": 3349,
      "vím": 3350,
      "během": 3351,
      "nachází": 3352,
      "slou": 3353,
      "pouze": 3354,
      "otá": 3355,
      "plo": 3356,
      "tové": 3357,
      "větši": 3358,
      "komi": 3359,
      "vají": 3360,
      "tyto": 3361,
      "zápa": 3362,
      "změ": 3363,
      "moh": 3364,
      "více": 3365,
      "společ": 3366,
      "auto": 3367,
      "proti": 3368,
      "dět": 3369,
      "cháze": 3370,
      "žel": 3371,
      "«": 3372,
      "»": 3373,
      "а": 3374,
      "б": 3375,
      "в": 3376,
      "г": 3377,
      "д": 3378,
      "е": 3379,
      "ж": 3380,
      "з": 3381,
      "и": 3382,
      "й": 3383,
      "к": 3384,
      "л": 3385,
      "м": 3386,
      "н": 3387,
      "о": 3388,
      "п": 3389,
      "р": 3390,
      "с": 3391,
      "т": 3392,
      "у": 3393,
      "ф": 3394,
      "х": 3395,
      "ц": 3396,
      "ч": 3397,
      "ш": 3398,
      "щ": 3399,
      "ъ": 3400,
      "ы": 3401,
      "ь": 3402,
      "э": 3403,
      "ю": 3404,
      "я": 3405,
      "ё": 3406,
      "‑": 3407,
      "−": 3408,
      "ст": 3409,
      "ен": 3410,
      "но": 3411,
      "на": 3412,
      "пр": 3413,
      "то": 3414,
      "по": 3415,
      "ра": 3416,
      "го": 3417,
      "ко": 3418,
      "не": 3419,
      "во": 3420,
      "ва": 3421,
      "ет": 3422,
      "ер": 3423,
      "ни": 3424,
      "ел": 3425,
      "ит": 3426,
      "ны": 3427,
      "за": 3428,
      "ро": 3429,
      "ени": 3430,
      "ка": 3431,
      "ли": 3432,
      "ем": 3433,
      "да": 3434,
      "об": 3435,
      "ла": 3436,
      "до": 3437,
      "ся": 3438,
      "ть": 3439,
      "от": 3440,
      "ло": 3441,
      "ль": 3442,
      "ед": 3443,
      "со": 3444,
      "ми": 3445,
      "ре": 3446,
      "мо": 3447,
      "ци": 3448,
      "про": 3449,
      "та": 3450,
      "это": 3451,
      "ки": 3452,
      "ру": 3453,
      "при": 3454,
      "ти": 3455,
      "се": 3456,
      "ста": 3457,
      "вы": 3458,
      "мы": 3459,
      "ви": 3460,
      "бы": 3461,
      "ма": 3462,
      "ес": 3463,
      "ля": 3464,
      "сти": 3465,
      "ле": 3466,
      "что": 3467,
      "ме": 3468,
      "ри": 3469,
      "ча": 3470,
      "од": 3471,
      "ей": 3472,
      "ель": 3473,
      "ения": 3474,
      "га": 3475,
      "ну": 3476,
      "си": 3477,
      "па": 3478,
      "раз": 3479,
      "бо": 3480,
      "сто": 3481,
      "су": 3482,
      "са": 3483,
      "ду": 3484,
      "его": 3485,
      "ест": 3486,
      "ин": 3487,
      "ить": 3488,
      "из": 3489,
      "же": 3490,
      "му": 3491,
      "пер": 3492,
      "под": 3493,
      "ение": 3494,
      "сь": 3495,
      "ку": 3496,
      "пред": 3497,
      "ного": 3498,
      "ных": 3499,
      "вер": 3500,
      "те": 3501,
      "ной": 3502,
      "ции": 3503,
      "де": 3504,
      "ры": 3505,
      "дел": 3506,
      "лю": 3507,
      "ве": 3508,
      "он": 3509,
      "мен": 3510,
      "ги": 3511,
      "ня": 3512,
      "бу": 3513,
      "пра": 3514,
      "все": 3515,
      "ется": 3516,
      "сть": 3517,
      "жа": 3518,
      "дол": 3519,
      "жи": 3520,
      "бе": 3521,
      "кон": 3522,
      "сл": 3523,
      "ши": 3524,
      "ди": 3525,
      "ств": 3526,
      "ско": 3527,
      "ные": 3528,
      "чи": 3529,
      "ют": 3530,
      "дер": 3531,
      "стра": 3532,
      "ты": 3533,
      "ход": 3534,
      "щи": 3535,
      "зо": 3536,
      "зна": 3537,
      "ности": 3538,
      "чес": 3539,
      "вля": 3540,
      "вать": 3541,
      "ор": 3542,
      "пол": 3543,
      "вет": 3544,
      "так": 3545,
      "ша": 3546,
      "ту": 3547,
      "сво": 3548,
      "пре": 3549,
      "она": 3550,
      "итель": 3551,
      "ный": 3552,
      "сло": 3553,
      "как": 3554,
      "вл": 3555,
      "ность": 3556,
      "хо": 3557,
      "мож": 3558,
      "пе": 3559,
      "для": 3560,
      "ния": 3561,
      "ное": 3562,
      "рас": 3563,
      "долж": 3564,
      "дар": 3565,
      "тель": 3566,
      "ска": 3567,
      "пу": 3568,
      "ство": 3569,
      "кото": 3570,
      "раб": 3571,
      "ее": 3572,
      "род": 3573,
      "эти": 3574,
      "соб": 3575,
      "ору": 3576,
      "жен": 3577,
      "ным": 3578,
      "ити": 3579,
      "ние": 3580,
      "ком": 3581,
      "дет": 3582,
      "сту": 3583,
      "гу": 3584,
      "пи": 3585,
      "меж": 3586,
      "ению": 3587,
      "тер": 3588,
      "работ": 3589,
      "воз": 3590,
      "ция": 3591,
      "кой": 3592,
      "щест": 3593,
      "гра": 3594,
      "зи": 3595,
      "ря": 3596,
      "между": 3597,
      "ства": 3598,
      "вс": 3599,
      "ело": 3600,
      "ше": 3601,
      "мер": 3602,
      "ба": 3603,
      "зы": 3604,
      "лу": 3605,
      "аль": 3606,
      "дей": 3607,
      "гла": 3608,
      "народ": 3609,
      "кти": 3610,
      "предста": 3611,
      "лся": 3612,
      "явля": 3613,
      "ски": 3614,
      "нов": 3615,
      "един": 3616,
      "ров": 3617,
      "ис": 3618,
      "нима": 3619,
      "рем": 3620,
      "ходи": 3621,
      "также": 3622,
      "дру": 3623,
      "ать": 3624,
      "след": 3625,
      "гово": 3626,
      "ная": 3627,
      "ющи": 3628,
      "ень": 3629,
      "которы": 3630,
      "хот": 3631,
      "ву": 3632,
      "их": 3633,
      "ему": 3634,
      "чит": 3635,
      "важ": 3636,
      "орга": 3637,
      "чески": 3638,
      "ще": 3639,
      "ке": 3640,
      "ха": 3641,
      "пос": 3642,
      "том": 3643,
      "боль": 3644,
      "мне": 3645,
      "пас": 3646,
      "объ": 3647,
      "прав": 3648,
      "конф": 3649,
      "слу": 3650,
      "поддер": 3651,
      "стви": 3652,
      "наш": 3653,
      "лько": 3654,
      "стоя": 3655,
      "ную": 3656,
      "лем": 3657,
      "енных": 3658,
      "кра": 3659,
      "ды": 3660,
      "международ": 3661,
      "гда": 3662,
      "необ": 3663,
      "госу": 3664,
      "ству": 3665,
      "ении": 3666,
      "государ": 3667,
      "кто": 3668,
      "им": 3669,
      "чест": 3670,
      "рет": 3671,
      "вопро": 3672,
      "лен": 3673,
      "ели": 3674,
      "рова": 3675,
      "ций": 3676,
      "нам": 3677,
      "этой": 3678,
      "жения": 3679,
      "необходи": 3680,
      "меня": 3681,
      "было": 3682,
      "сили": 3683,
      "фи": 3684,
      "вя": 3685,
      "шь": 3686,
      "этого": 3687,
      "они": 3688,
      "органи": 3689,
      "безо": 3690,
      "проб": 3691,
      "име": 3692,
      "реш": 3693,
      "би": 3694,
      "безопас": 3695,
      "ются": 3696,
      "оста": 3697,
      "енно": 3698,
      "год": 3699,
      "ела": 3700,
      "представ": 3701,
      "ться": 3702,
      "слово": 3703,
      "организа": 3704,
      "должны": 3705,
      "этом": 3706,
      "бла": 3707,
      "че": 3708,
      "чу": 3709,
      "благо": 3710,
      "этому": 3711,
      "врем": 3712,
      "спе": 3713,
      "ном": 3714,
      "ений": 3715,
      "спо": 3716,
      "нас": 3717,
      "нет": 3718,
      "зу": 3719,
      "вед": 3720,
      "еще": 3721,
      "сказа": 3722,
      "сей": 3723,
      "ерен": 3724,
      "дан": 3725,
      "сам": 3726,
      "еля": 3727,
      "ран": 3728,
      "зыва": 3729,
      "является": 3730,
      "будет": 3731,
      "ктив": 3732,
      "тре": 3733,
      "деле": 3734,
      "мот": 3735,
      "конферен": 3736,
      "лась": 3737,
      "час": 3738,
      "сторо": 3739,
      "кого": 3740,
      "ез": 3741,
      "ней": 3742,
      "ос": 3743,
      "лись": 3744,
      "разору": 3745,
      "пере": 3746,
      "сси": 3747,
      "ными": 3748,
      "проц": 3749,
      "голо": 3750,
      "чело": 3751,
      "боле": 3752,
      "челове": 3753,
      "сер": 3754,
      "пл": 3755,
      "чет": 3756,
      "стран": 3757,
      "пя": 3758,
      "был": 3759,
      "кла": 3760,
      "тов": 3761,
      "жд": 3762,
      "дела": 3763,
      "ера": 3764,
      "уже": 3765,
      "совет": 3766,
      "ген": 3767,
      "безопасности": 3768,
      "ца": 3769,
      "седа": 3770,
      "поз": 3771,
      "ответ": 3772,
      "проблем": 3773,
      "нако": 3774,
      "тем": 3775,
      "доста": 3776,
      "пы": 3777,
      "ща": 3778,
      "вой": 3779,
      "сущест": 3780,
      "необходимо": 3781,
      "быть": 3782,
      "может": 3783,
      "дем": 3784,
      "чтобы": 3785,
      "ек": 3786,
      "чер": 3787,
      "усили": 3788,
      "рес": 3789,
      "руд": 3790,
      "единенных": 3791,
      "доб": 3792,
      "дости": 3793,
      "ствен": 3794,
      "ядер": 3795,
      "годня": 3796,
      "каза": 3797,
      "сегодня": 3798,
      "сейчас": 3799,
      "только": 3800,
      "вод": 3801,
      "есь": 3802,
      "много": 3803,
      "буду": 3804,
      "ев": 3805,
      "есть": 3806,
      "три": 3807,
      "общест": 3808,
      "явл": 3809,
      "высту": 3810,
      "ред": 3811,
      "счит": 3812,
      "сит": 3813,
      "делега": 3814,
      "лож": 3815,
      "этот": 3816,
      "фор": 3817,
      "клю": 3818,
      "возмож": 3819,
      "вания": 3820,
      "бли": 3821,
      "или": 3822,
      "вз": 3823,
      "наций": 3824,
      "ского": 3825,
      "приня": 3826,
      "пла": 3827,
      "оч": 3828,
      "иться": 3829,
      "сте": 3830,
      "наши": 3831,
      "которые": 3832,
      "ар": 3833,
      "имеет": 3834,
      "сот": 3835,
      "знач": 3836,
      "перь": 3837,
      "следу": 3838,
      "ены": 3839,
      "таки": 3840,
      "объединенных": 3841,
      "стро": 3842,
      "теперь": 3843,
      "бле": 3844,
      "благодар": 3845,
      "разв": 3846,
      "ан": 3847,
      "жива": 3848,
      "очень": 3849,
      "ят": 3850,
      "без": 3851,
      "обес": 3852,
      "гро": 3853,
      "лось": 3854,
      "сы": 3855,
      "организации": 3856,
      "член": 3857,
      "того": 3858,
      "ональ": 3859,
      "жда": 3860,
      "всех": 3861,
      "свя": 3862,
      "более": 3863,
      "сов": 3864,
      "когда": 3865,
      "вот": 3866,
      "кре": 3867,
      "кры": 3868,
      "поэтому": 3869,
      "воль": 3870,
      "ой": 3871,
      "генера": 3872,
      "чем": 3873,
      "лы": 3874,
      "полити": 3875,
      "вен": 3876,
      "конференции": 3877,
      "процес": 3878,
      "бя": 3879,
      "ите": 3880,
      "отно": 3881,
      "развити": 3882,
      "аф": 3883,
      "ющ": 3884,
      "вно": 3885,
      "мир": 3886,
      "нии": 3887,
      "кая": 3888,
      "ас": 3889,
      "ительно": 3890,
      "вто": 3891,
      "ением": 3892,
      "генераль": 3893,
      "прот": 3894,
      "всем": 3895,
      "самбле": 3896,
      "ассамбле": 3897,
      "ом": 3898,
      "зд": 3899,
      "смот": 3900,
      "реги": 3901,
      "чего": 3902,
      "однако": 3903,
      "усилия": 3904,
      "действи": 3905,
      "чно": 3906,
      "уча": 3907,
      "образ": 3908,
      "вос": 3909,
      "эта": 3910,
      "перего": 3911,
      "говор": 3912,
      "вам": 3913,
      "моло": 3914,
      "время": 3915,
      "дь": 3916,
      "хотел": 3917,
      "гру": 3918,
      "заявл": 3919,
      "предоста": 3920,
      "поль": 3921,
      "нее": 3922,
      "резо": 3923,
      "перегово": 3924,
      "резолю": 3925,
      "крет": 3926,
      "поддерж": 3927,
      "обеспе": 3928,
      "него": 3929,
      "представит": 3930,
      "наде": 3931,
      "кри": 3932,
      "чь": 3933,
      "проек": 3934,
      "лет": 3935,
      "други": 3936,
      "_": 3937,
      "،": 3938,
      "؛": 3939,
      "؟": 3940,
      "ء": 3941,
      "آ": 3942,
      "أ": 3943,
      "ؤ": 3944,
      "إ": 3945,
      "ئ": 3946,
      "ا": 3947,
      "ب": 3948,
      "ة": 3949,
      "ت": 3950,
      "ث": 3951,
      "ج": 3952,
      "ح": 3953,
      "خ": 3954,
      "د": 3955,
      "ذ": 3956,
      "ر": 3957,
      "ز": 3958,
      "س": 3959,
      "ش": 3960,
      "ص": 3961,
      "ض": 3962,
      "ط": 3963,
      "ظ": 3964,
      "ع": 3965,
      "غ": 3966,
      "ـ": 3967,
      "ف": 3968,
      "ق": 3969,
      "ك": 3970,
      "ل": 3971,
      "م": 3972,
      "ن": 3973,
      "ه": 3974,
      "و": 3975,
      "ى": 3976,
      "ي": 3977,
      "ً": 3978,
      "ٌ": 3979,
      "ٍ": 3980,
      "َ": 3981,
      "ُ": 3982,
      "ِ": 3983,
      "ّ": 3984,
      "ْ": 3985,
      "ٰ": 3986,
      "چ": 3987,
      "ڨ": 3988,
      "ک": 3989,
      "ھ": 3990,
      "ی": 3991,
      "ۖ": 3992,
      "ۗ": 3993,
      "ۘ": 3994,
      "ۚ": 3995,
      "ۛ": 3996,
      "—": 3997,
      "☭": 3998,
      "ﺃ": 3999,
      "ﻻ": 4000,
      "ال": 4001,
      "َا": 4002,
      "وَ": 4003,
      "َّ": 4004,
      "ِي": 4005,
      "أَ": 4006,
      "لَ": 4007,
      "نَ": 4008,
      "الْ": 4009,
      "هُ": 4010,
      "ُو": 4011,
      "ما": 4012,
      "نْ": 4013,
      "من": 4014,
      "عَ": 4015,
      "نا": 4016,
      "لا": 4017,
      "مَ": 4018,
      "تَ": 4019,
      "فَ": 4020,
      "أن": 4021,
      "لي": 4022,
      "مِ": 4023,
      "ان": 4024,
      "في": 4025,
      "رَ": 4026,
      "يَ": 4027,
      "هِ": 4028,
      "مْ": 4029,
      "قَ": 4030,
      "بِ": 4031,
      "لى": 4032,
      "ين": 4033,
      "إِ": 4034,
      "لِ": 4035,
      "وا": 4036,
      "كَ": 4037,
      "ها": 4038,
      "ًا": 4039,
      "مُ": 4040,
      "ون": 4041,
      "الم": 4042,
      "بَ": 4043,
      "يا": 4044,
      "ذا": 4045,
      "سا": 4046,
      "الل": 4047,
      "مي": 4048,
      "يْ": 4049,
      "را": 4050,
      "ري": 4051,
      "لك": 4052,
      "مَا": 4053,
      "نَّ": 4054,
      "لم": 4055,
      "إن": 4056,
      "ست": 4057,
      "وم": 4058,
      "َّا": 4059,
      "لَا": 4060,
      "هم": 4061,
      "ِّ": 4062,
      "كُ": 4063,
      "كان": 4064,
      "سَ": 4065,
      "با": 4066,
      "دي": 4067,
      "حَ": 4068,
      "عْ": 4069,
      "بي": 4070,
      "الأ": 4071,
      "ول": 4072,
      "فِي": 4073,
      "رِ": 4074,
      "دا": 4075,
      "مِنْ": 4076,
      "ُونَ": 4077,
      "وْ": 4078,
      "هَا": 4079,
      "ُّ": 4080,
      "الس": 4081,
      "الَ": 4082,
      "ني": 4083,
      "لْ": 4084,
      "تُ": 4085,
      "هل": 4086,
      "رة": 4087,
      "دَ": 4088,
      "سْ": 4089,
      "تِ": 4090,
      "نَا": 4091,
      "رْ": 4092,
      "اللَّ": 4093,
      "سامي": 4094,
      "كن": 4095,
      "كل": 4096,
      "هَ": 4097,
      "عَلَ": 4098,
      "على": 4099,
      "مع": 4100,
      "إلى": 4101,
      "قد": 4102,
      "الر": 4103,
      "ُوا": 4104,
      "ير": 4105,
      "عن": 4106,
      "يُ": 4107,
      "نِ": 4108,
      "بْ": 4109,
      "الح": 4110,
      "هُمْ": 4111,
      "قا": 4112,
      "ذه": 4113,
      "الت": 4114,
      "ِينَ": 4115,
      "جَ": 4116,
      "هذا": 4117,
      "عد": 4118,
      "الع": 4119,
      "دْ": 4120,
      "قَالَ": 4121,
      "رُ": 4122,
      "يم": 4123,
      "ية": 4124,
      "نُ": 4125,
      "خَ": 4126,
      "رب": 4127,
      "الك": 4128,
      "وَا": 4129,
      "أنا": 4130,
      "ةِ": 4131,
      "الن": 4132,
      "حد": 4133,
      "عِ": 4134,
      "تا": 4135,
      "هو": 4136,
      "فا": 4137,
      "عا": 4138,
      "الش": 4139,
      "لُ": 4140,
      "يت": 4141,
      "ذَا": 4142,
      "يع": 4143,
      "الذ": 4144,
      "حْ": 4145,
      "الص": 4146,
      "إِنَّ": 4147,
      "جا": 4148,
      "علي": 4149,
      "كَا": 4150,
      "بُ": 4151,
      "تع": 4152,
      "وق": 4153,
      "مل": 4154,
      "لَّ": 4155,
      "يد": 4156,
      "أخ": 4157,
      "رف": 4158,
      "تي": 4159,
      "الِ": 4160,
      "ّا": 4161,
      "ذلك": 4162,
      "أَنْ": 4163,
      "سِ": 4164,
      "توم": 4165,
      "مر": 4166,
      "مَنْ": 4167,
      "بل": 4168,
      "الق": 4169,
      "الله": 4170,
      "ِيَ": 4171,
      "كم": 4172,
      "ذَ": 4173,
      "عل": 4174,
      "حب": 4175,
      "سي": 4176,
      "عُ": 4177,
      "الج": 4178,
      "الد": 4179,
      "شَ": 4180,
      "تك": 4181,
      "فْ": 4182,
      "صَ": 4183,
      "لل": 4184,
      "دِ": 4185,
      "بر": 4186,
      "فِ": 4187,
      "ته": 4188,
      "أع": 4189,
      "تْ": 4190,
      "قْ": 4191,
      "الْأَ": 4192,
      "ئِ": 4193,
      "عَنْ": 4194,
      "ور": 4195,
      "حا": 4196,
      "الَّ": 4197,
      "مت": 4198,
      "فر": 4199,
      "دُ": 4200,
      "هنا": 4201,
      "وَأَ": 4202,
      "تب": 4203,
      "ةُ": 4204,
      "أي": 4205,
      "سب": 4206,
      "ريد": 4207,
      "وج": 4208,
      "كُمْ": 4209,
      "حِ": 4210,
      "كْ": 4211,
      "در": 4212,
      "َاء": 4213,
      "هذه": 4214,
      "الط": 4215,
      "الْمُ": 4216,
      "دة": 4217,
      "قل": 4218,
      "غَ": 4219,
      "يوم": 4220,
      "الَّذ": 4221,
      "كر": 4222,
      "تر": 4223,
      "كِ": 4224,
      "كي": 4225,
      "عَلَى": 4226,
      "رَب": 4227,
      "عة": 4228,
      "قُ": 4229,
      "جْ": 4230,
      "فض": 4231,
      "لة": 4232,
      "هْ": 4233,
      "رَا": 4234,
      "وَلَ": 4235,
      "الْمَ": 4236,
      "أَنَّ": 4237,
      "يَا": 4238,
      "أُ": 4239,
      "شي": 4240,
      "اللَّهُ": 4241,
      "لَى": 4242,
      "قِ": 4243,
      "أت": 4244,
      "عَلَيْ": 4245,
      "اللَّهِ": 4246,
      "الب": 4247,
      "ضَ": 4248,
      "ةً": 4249,
      "قي": 4250,
      "ار": 4251,
      "بد": 4252,
      "خْ": 4253,
      "سْتَ": 4254,
      "طَ": 4255,
      "قَدْ": 4256,
      "ذهب": 4257,
      "أم": 4258,
      "ماذا": 4259,
      "وَإِ": 4260,
      "ةٌ": 4261,
      "ونَ": 4262,
      "ليلى": 4263,
      "ولا": 4264,
      "حُ": 4265,
      "هي": 4266,
      "صل": 4267,
      "الخ": 4268,
      "ود": 4269,
      "ليس": 4270,
      "لدي": 4271,
      "قال": 4272,
      "كَانَ": 4273,
      "مَّ": 4274,
      "حي": 4275,
      "تم": 4276,
      "لن": 4277,
      "وَلَا": 4278,
      "بع": 4279,
      "يمكن": 4280,
      "سُ": 4281,
      "ةَ": 4282,
      "حت": 4283,
      "رًا": 4284,
      "كا": 4285,
      "شا": 4286,
      "هِمْ": 4287,
      "لَهُ": 4288,
      "زَ": 4289,
      "داً": 4290,
      "مس": 4291,
      "كث": 4292,
      "الْعَ": 4293,
      "جِ": 4294,
      "صْ": 4295,
      "فَا": 4296,
      "له": 4297,
      "وي": 4298,
      "عَا": 4299,
      "هُوَ": 4300,
      "بِي": 4301,
      "بَا": 4302,
      "أس": 4303,
      "ثَ": 4304,
      "لِي": 4305,
      "رض": 4306,
      "الرَّ": 4307,
      "لِكَ": 4308,
      "تَّ": 4309,
      "فُ": 4310,
      "قة": 4311,
      "فعل": 4312,
      "مِن": 4313,
      "الآ": 4314,
      "ثُ": 4315,
      "سم": 4316,
      "مَّا": 4317,
      "بِهِ": 4318,
      "تق": 4319,
      "خر": 4320,
      "لقد": 4321,
      "خل": 4322,
      "شر": 4323,
      "أنت": 4324,
      "لَّا": 4325,
      "سن": 4326,
      "السَّ": 4327,
      "الذي": 4328,
      "سَا": 4329,
      "وما": 4330,
      "زل": 4331,
      "وب": 4332,
      "أْ": 4333,
      "إذا": 4334,
      "رِي": 4335,
      "حة": 4336,
      "نِي": 4337,
      "الْحَ": 4338,
      "وَقَالَ": 4339,
      "به": 4340,
      "ةٍ": 4341,
      "سأ": 4342,
      "رٌ": 4343,
      "بال": 4344,
      "مة": 4345,
      "شْ": 4346,
      "وت": 4347,
      "عند": 4348,
      "فس": 4349,
      "بَعْ": 4350,
      "هر": 4351,
      "قط": 4352,
      "أح": 4353,
      "إنه": 4354,
      "وع": 4355,
      "فت": 4356,
      "غا": 4357,
      "هناك": 4358,
      "بت": 4359,
      "مِنَ": 4360,
      "سر": 4361,
      "ذَلِكَ": 4362,
      "رس": 4363,
      "حدث": 4364,
      "غْ": 4365,
      "ِّي": 4366,
      "الإ": 4367,
      "وَيَ": 4368,
      "جل": 4369,
      "است": 4370,
      "قِي": 4371,
      "عب": 4372,
      "وس": 4373,
      "يش": 4374,
      "الَّذِينَ": 4375,
      "تاب": 4376,
      "دِي": 4377,
      "جب": 4378,
      "كون": 4379,
      "بن": 4380,
      "الث": 4381,
      "لَيْ": 4382,
      "بعد": 4383,
      "وَالْ": 4384,
      "فَأَ": 4385,
      "عم": 4386,
      "هُم": 4387,
      "تن": 4388,
      "ذْ": 4389,
      "أص": 4390,
      "أين": 4391,
      "رَبِّ": 4392,
      "الذين": 4393,
      "إِن": 4394,
      "بين": 4395,
      "جُ": 4396,
      "عَلَيْهِ": 4397,
      "حَا": 4398,
      "لو": 4399,
      "ستط": 4400,
      "ظر": 4401,
      "لَمْ": 4402,
      "ءِ": 4403,
      "كُل": 4404,
      "طل": 4405,
      "تَا": 4406,
      "ضُ": 4407,
      "كنت": 4408,
      "لًا": 4409,
      "مٌ": 4410,
      "قبل": 4411,
      "ــ": 4412,
      "ذِ": 4413,
      "قَوْ": 4414,
      "صِ": 4415,
      "مًا": 4416,
      "كانت": 4417,
      "صا": 4418,
      "يق": 4419,
      "الف": 4420,
      "النا": 4421,
      "مٍ": 4422,
      "إِنْ": 4423,
      "النَّ": 4424,
      "جد": 4425,
      "وَمَا": 4426,
      "تت": 4427,
      "بح": 4428,
      "مكان": 4429,
      "كيف": 4430,
      "ّة": 4431,
      "الا": 4432,
      "جَا": 4433,
      "أو": 4434,
      "ساعد": 4435,
      "ضِ": 4436,
      "إلا": 4437,
      "راً": 4438,
      "قَا": 4439,
      "رأ": 4440,
      "عت": 4441,
      "أحد": 4442,
      "هد": 4443,
      "ضا": 4444,
      "طر": 4445,
      "أق": 4446,
      "ماء": 4447,
      "دَّ": 4448,
      "البا": 4449,
      "مُو": 4450,
      "أَوْ": 4451,
      "طا": 4452,
      "قُو": 4453,
      "خِ": 4454,
      "تل": 4455,
      "ستطيع": 4456,
      "دَا": 4457,
      "النَّا": 4458,
      "إلَى": 4459,
      "وَتَ": 4460,
      "هَذَا": 4461,
      "بة": 4462,
      "عليك": 4463,
      "جر": 4464,
      "المن": 4465,
      "زا": 4466,
      "رٍ": 4467,
      "دع": 4468,
      "ًّا": 4469,
      "سة": 4470,
      "ثُمَّ": 4471,
      "شيء": 4472,
      "الغ": 4473,
      "تح": 4474,
      "رُونَ": 4475,
      "اليوم": 4476,
      "مِي": 4477,
      "نُوا": 4478,
      "أر": 4479,
      "تُمْ": 4480,
      "عر": 4481,
      "يف": 4482,
      "أب": 4483,
      "دًا": 4484,
      "صَا": 4485,
      "التَّ": 4486,
      "أريد": 4487,
      "الز": 4488,
      "يَوْ": 4489,
      "إلي": 4490,
      "جي": 4491,
      "يَعْ": 4492,
      "فضل": 4493,
      "الإن": 4494,
      "أنه": 4495,
      "1": 4496,
      "2": 4497,
      "3": 4498,
      "4": 4499,
      "5": 4500,
      "·": 4501,
      "×": 4502,
      "̃": 4503,
      "̌": 4504,
      "ε": 4505,
      "λ": 4506,
      "μ": 4507,
      "•": 4508,
      "‧": 4509,
      "─": 4510,
      "□": 4511,
      "、": 4512,
      "。": 4513,
      "〈": 4514,
      "〉": 4515,
      "《": 4516,
      "》": 4517,
      "「": 4518,
      "」": 4519,
      "『": 4520,
      "』": 4521,
      "ア": 4522,
      "オ": 4523,
      "カ": 4524,
      "チ": 4525,
      "ド": 4526,
      "ベ": 4527,
      "ャ": 4528,
      "ヤ": 4529,
      "ン": 4530,
      "・": 4531,
      "ー": 4532,
      "ㄟ": 4533,
      "！": 4534,
      "（": 4535,
      "）": 4536,
      "，": 4537,
      "－": 4538,
      "／": 4539,
      "：": 4540,
      "；": 4541,
      "？": 4542,
      "ｐ": 4543,
      "i4": 4544,
      "zh": 4545,
      "i2": 4546,
      "ng1": 4547,
      "u4": 4548,
      "i1": 4549,
      "ng2": 4550,
      "u3": 4551,
      "de5": 4552,
      "e4": 4553,
      "i3": 4554,
      "ng4": 4555,
      "an4": 4556,
      "shi4": 4557,
      "an2": 4558,
      "u2": 4559,
      "u1": 4560,
      "ng3": 4561,
      "a1": 4562,
      "an1": 4563,
      "e2": 4564,
      "a4": 4565,
      "ei4": 4566,
      "ong1": 4567,
      "ai4": 4568,
      "ao4": 4569,
      "ang1": 4570,
      "an3": 4571,
      "wei4": 4572,
      "uo2": 4573,
      "n1": 4574,
      "en2": 4575,
      "ao3": 4576,
      "e1": 4577,
      "qi": 4578,
      "eng2": 4579,
      "zho": 4580,
      "ang3": 4581,
      "ang4": 4582,
      "ang2": 4583,
      "uo4": 4584,
      "ge4": 4585,
      "yi1": 4586,
      "guo2": 4587,
      "a3": 4588,
      "he2": 4589,
      "e3": 4590,
      "yi2": 4591,
      "di4": 4592,
      "zhong1": 4593,
      "bu4": 4594,
      "ai2": 4595,
      "n2": 4596,
      "zai4": 4597,
      "shi2": 4598,
      "eng1": 4599,
      "ren2": 4600,
      "ong2": 4601,
      "xian4": 4602,
      "xu": 4603,
      "n4": 4604,
      "li4": 4605,
      "en4": 4606,
      "yu2": 4607,
      "ei2": 4608,
      "yi2ge4": 4609,
      "ou4": 4610,
      "ei3": 4611,
      "ui4": 4612,
      "a2": 4613,
      "you3": 4614,
      "ao1": 4615,
      "da4": 4616,
      "cheng2": 4617,
      "en1": 4618,
      "eng4": 4619,
      "yi4": 4620,
      "si1": 4621,
      "zhi4": 4622,
      "jia1": 4623,
      "yuan2": 4624,
      "ta1": 4625,
      "de5yi2ge4": 4626,
      "ke1": 4627,
      "shu3": 4628,
      "xi1": 4629,
      "ji2": 4630,
      "ao2": 4631,
      "ou3": 4632,
      "ong4": 4633,
      "xia4": 4634,
      "ai1": 4635,
      "gong1": 4636,
      "zhi1": 4637,
      "en3": 4638,
      "wei2": 4639,
      "xue2": 4640,
      "qu1": 4641,
      "zhou1": 4642,
      "er3": 4643,
      "ming2": 4644,
      "zhong3": 4645,
      "li3": 4646,
      "wu4": 4647,
      "yi3": 4648,
      "uo1": 4649,
      "e5": 4650,
      "ji4": 4651,
      "xing2": 4652,
      "jian4": 4653,
      "hua4": 4654,
      "yu3": 4655,
      "uo3": 4656,
      "ji1": 4657,
      "ai3": 4658,
      "zuo4": 4659,
      "hou4": 4660,
      "hui4": 4661,
      "ei1": 4662,
      "nian2": 4663,
      "qi2": 4664,
      "dao4": 4665,
      "sheng1": 4666,
      "de2": 4667,
      "dai4": 4668,
      "uan2": 4669,
      "zhe4": 4670,
      "zheng4": 4671,
      "ben3": 4672,
      "shang4": 4673,
      "zhu3": 4674,
      "bei4": 4675,
      "ye4": 4676,
      "chu1": 4677,
      "zhan4": 4678,
      "le5": 4679,
      "lai2": 4680,
      "shi3": 4681,
      "nan2": 4682,
      "ren4": 4683,
      "you2": 4684,
      "ke4": 4685,
      "ba1": 4686,
      "fu4": 4687,
      "dui4": 4688,
      "ya4": 4689,
      "mei3": 4690,
      "zi4": 4691,
      "xin1": 4692,
      "jing1": 4693,
      "zhu": 4694,
      "n3": 4695,
      "yong4": 4696,
      "mu4": 4697,
      "jiao4": 4698,
      "ye3": 4699,
      "jin4": 4700,
      "bian4": 4701,
      "lu4": 4702,
      "qi1": 4703,
      "she4": 4704,
      "xiang1": 4705,
      "ong3": 4706,
      "shu4": 4707,
      "dong4": 4708,
      "suo3": 4709,
      "guan1": 4710,
      "san1": 4711,
      "te4": 4712,
      "duo1": 4713,
      "fu2": 4714,
      "min2": 4715,
      "la1": 4716,
      "zhi2": 4717,
      "zhen4": 4718,
      "ou1": 4719,
      "wu3": 4720,
      "ma3": 4721,
      "i5": 4722,
      "zi5": 4723,
      "ju4": 4724,
      "er4": 4725,
      "yao4": 4726,
      "xia4de5yi2ge4": 4727,
      "si4": 4728,
      "tu2": 4729,
      "shan1": 4730,
      "zui4": 4731,
      "yin1": 4732,
      "er2": 4733,
      "tong2": 4734,
      "dong1": 4735,
      "yu4": 4736,
      "yan2": 4737,
      "qian2": 4738,
      "shu3xia4de5yi2ge4": 4739,
      "jun1": 4740,
      "ke3": 4741,
      "wen2": 4742,
      "fa3": 4743,
      "luo2": 4744,
      "zhu4": 4745,
      "xi4": 4746,
      "kou3": 4747,
      "bei3": 4748,
      "jian1": 4749,
      "fa1": 4750,
      "dian4": 4751,
      "jiang1": 4752,
      "wei4yu2": 4753,
      "xiang4": 4754,
      "zhi3": 4755,
      "eng3": 4756,
      "fang1": 4757,
      "lan2": 4758,
      "shu": 4759,
      "ri4": 4760,
      "lian2": 4761,
      "shou3": 4762,
      "qiu2": 4763,
      "jin1": 4764,
      "huo4": 4765,
      "shu3xia4de5yi2ge4zhong3": 4766,
      "fen1": 4767,
      "nei4": 4768,
      "gai1": 4769,
      "mei3guo2": 4770,
      "un2": 4771,
      "ge2": 4772,
      "bao3": 4773,
      "qing1": 4774,
      "gao1": 4775,
      "tai2": 4776,
      "xiao3": 4777,
      "jie2": 4778,
      "tian1": 4779,
      "chang2": 4780,
      "quan2": 4781,
      "lie4": 4782,
      "hai3": 4783,
      "fei1": 4784,
      "ti3": 4785,
      "jue2": 4786,
      "ou2": 4787,
      "ci3": 4788,
      "zu2": 4789,
      "ni2": 4790,
      "biao3": 4791,
      "zhong1guo2": 4792,
      "du4": 4793,
      "yue4": 4794,
      "xing4": 4795,
      "sheng4": 4796,
      "che1": 4797,
      "dan1": 4798,
      "jie1": 4799,
      "lin2": 4800,
      "ping2": 4801,
      "fu3": 4802,
      "gu3": 4803,
      "jie4": 4804,
      "v3": 4805,
      "sheng3": 4806,
      "na4": 4807,
      "yuan4": 4808,
      "zhang3": 4809,
      "guan3": 4810,
      "dao3": 4811,
      "zu3": 4812,
      "ding4": 4813,
      "dian3": 4814,
      "ceng2": 4815,
      "ren2kou3": 4816,
      "tai4": 4817,
      "tong1": 4818,
      "guo4": 4819,
      "neng2": 4820,
      "chang3": 4821,
      "hua2": 4822,
      "liu2": 4823,
      "ying1": 4824,
      "xiao4": 4825,
      "ci4": 4826,
      "bian4hua4": 4827,
      "liang3": 4828,
      "gong4": 4829,
      "zhong4": 4830,
      "de5yi1": 4831,
      "se4": 4832,
      "kai1": 4833,
      "wang2": 4834,
      "jiu4": 4835,
      "shi1": 4836,
      "shou4": 4837,
      "mei2": 4838,
      "feng1": 4839,
      "ze2": 4840,
      "tu2shi4": 4841,
      "ti2": 4842,
      "qi4": 4843,
      "jiu3": 4844,
      "shen1": 4845,
      "zhe3": 4846,
      "ren2kou3bian4hua4": 4847,
      "ren2kou3bian4hua4tu2shi4": 4848,
      "di4qu1": 4849,
      "yang2": 4850,
      "men5": 4851,
      "long2": 4852,
      "bing4": 4853,
      "chan3": 4854,
      "zhu1": 4855,
      "wei3": 4856,
      "wai4": 4857,
      "xing1": 4858,
      "bo1": 4859,
      "bi3": 4860,
      "tang2": 4861,
      "hua1": 4862,
      "bo2": 4863,
      "shui3": 4864,
      "shu1": 4865,
      "dou1": 4866,
      "sai4": 4867,
      "chao2": 4868,
      "bi4": 4869,
      "ling2": 4870,
      "lei4": 4871,
      "da4xue2": 4872,
      "fen4": 4873,
      "shu3de5": 4874,
      "mu3": 4875,
      "jiao1": 4876,
      "dang1": 4877,
      "cheng1": 4878,
      "tong3": 4879,
      "nv3": 4880,
      "qi3": 4881,
      "yan3": 4882,
      "mian4": 4883,
      "luo4": 4884,
      "jing4": 4885,
      "ge1": 4886,
      "ru4": 4887,
      "dan4": 4888,
      "ri4ben3": 4889,
      "pu3": 4890,
      "yun4": 4891,
      "huang2": 4892,
      "wo3": 4893,
      "lv": 4894,
      "hai2": 4895,
      "shi4yi1": 4896,
      "xie1": 4897,
      "ying3": 4898,
      "wu2": 4899,
      "shen2": 4900,
      "wang3": 4901,
      "guang3": 4902,
      "liu4": 4903,
      "su4": 4904,
      "shi4zhen4": 4905,
      "can1": 4906,
      "cao3": 4907,
      "xia2": 4908,
      "ka3": 4909,
      "da2": 4910,
      "hu4": 4911,
      "ban4": 4912,
      "dang3": 4913,
      "hu2": 4914,
      "zong3": 4915,
      "deng3": 4916,
      "de5yi2ge4shi4zhen4": 4917,
      "chuan2": 4918,
      "mo4": 4919,
      "zhang1": 4920,
      "ban1": 4921,
      "mo2": 4922,
      "cha2": 4923,
      "ce4": 4924,
      "zhu3yao4": 4925,
      "tou2": 4926,
      "ju2": 4927,
      "shi4wei4yu2": 4928,
      "sa4": 4929,
      "un1": 4930,
      "ke3yi3": 4931,
      "du1": 4932,
      "han4": 4933,
      "liang4": 4934,
      "sha1": 4935,
      "jia3": 4936,
      "zi1": 4937,
      "lv4": 4938,
      "fu1": 4939,
      "xian1": 4940,
      "xu4": 4941,
      "guang1": 4942,
      "meng2": 4943,
      "bao4": 4944,
      "you4": 4945,
      "rong2": 4946,
      "zhi1yi1": 4947,
      "wei1": 4948,
      "mao2": 4949,
      "guo2jia1": 4950,
      "cong2": 4951,
      "gou4": 4952,
      "tie3": 4953,
      "zhen1": 4954,
      "du2": 4955,
      "bian1": 4956,
      "ci2": 4957,
      "qu3": 4958,
      "fan4": 4959,
      "xiang3": 4960,
      "men2": 4961,
      "ju1": 4962,
      "hong2": 4963,
      "zi3": 4964,
      "ta1men5": 4965,
      "ji3": 4966,
      "zong1": 4967,
      "zhou1de5yi2ge4shi4zhen4": 4968,
      "tuan2": 4969,
      "jing3": 4970,
      "gong1si1": 4971,
      "xie4": 4972,
      "li2": 4973,
      "li4shi3": 4974,
      "bao1": 4975,
      "gang3": 4976,
      "gui1": 4977,
      "zheng1": 4978,
      "zhi2wu4": 4979,
      "ta1de5": 4980,
      "pin3": 4981,
      "zhuan1": 4982,
      "chong2": 4983,
      "shi3yong4": 4984,
      "wa3": 4985,
      "shuo1": 4986,
      "chuan1": 4987,
      "lei2": 4988,
      "wan1": 4989,
      "huo2": 4990,
      "su1": 4991,
      "zao3": 4992,
      "gai3": 4993,
      "qu4": 4994,
      "gu4": 4995,
      "xi2": 4996,
      "hang2": 4997,
      "ying4": 4998,
      "cun1": 4999,
      "gen1": 5000,
      "ying2": 5001,
      "ting2": 5002,
      "cheng2shi4": 5003,
      "jiang3": 5004,
      "ling3": 5005,
      "lun2": 5006,
      "bu4fen4": 5007,
      "deng1": 5008,
      "xuan3": 5009,
      "dong4wu4": 5010,
      "de2guo2": 5011,
      "xian3": 5012,
      "fan3": 5013,
      "zhe5": 5014,
      "han2": 5015,
      "hao4": 5016,
      "mi4": 5017,
      "ran2": 5018,
      "qin1": 5019,
      "tiao2": 5020,
      "zhan3": 5021,
      "[ar]": 5022,
      "[zh-cn]": 5023,
      "¡": 5024,
      "é": 5025,
      "shi": 5026,
      "tsu": 5027,
      "teki": 5028,
      "nai": 5029,
      "aru": 5030,
      "uu": 5031,
      "kai": 5032,
      "shite": 5033,
      "mono": 5034,
      "koto": 5035,
      "kara": 5036,
      "shita": 5037,
      "suru": 5038,
      "masu": 5039,
      "tai": 5040,
      "ware": 5041,
      "shin": 5042,
      "oku": 5043,
      "yuu": 5044,
      "iru": 5045,
      "jiko": 5046,
      "desu": 5047,
      "rare": 5048,
      "shou": 5049,
      "sha": 5050,
      "sekai": 5051,
      "kyou": 5052,
      "mashita": 5053,
      "nara": 5054,
      "kei": 5055,
      "ita": 5056,
      "ari": 5057,
      "itsu": 5058,
      "kono": 5059,
      "naka": 5060,
      "chou": 5061,
      "sore": 5062,
      "naru": 5063,
      "gaku": 5064,
      "reba": 5065,
      "hito": 5066,
      "sai": 5067,
      "nan": 5068,
      "dai": 5069,
      "tsuku": 5070,
      "shiki": 5071,
      "sare": 5072,
      "naku": 5073,
      "jun": 5074,
      "kaku": 5075,
      "zai": 5076,
      "wata": 5077,
      "shuu": 5078,
      "ii": 5079,
      "kare": 5080,
      "shii": 5081,
      "made": 5082,
      "sho": 5083,
      "kereba": 5084,
      "shika": 5085,
      "ichi": 5086,
      "deki": 5087,
      "nin": 5088,
      "wareware": 5089,
      "nakereba": 5090,
      "oite": 5091,
      "yaku": 5092,
      "mujun": 5093,
      "yoku": 5094,
      "butsu": 5095,
      "omo": 5096,
      "gae": 5097,
      "naranai": 5098,
      "tachi": 5099,
      "chuu": 5100,
      "kangae": 5101,
      "toki": 5102,
      "koro": 5103,
      "mujunteki": 5104,
      "naga": 5105,
      "jin": 5106,
      "shima": 5107,
      "iku": 5108,
      "imasu": 5109,
      "hon": 5110,
      "kae": 5111,
      "kore": 5112,
      "kita": 5113,
      "datta": 5114,
      "jitsu": 5115,
      "mae": 5116,
      "toku": 5117,
      "douitsu": 5118,
      "ritsu": 5119,
      "kyuu": 5120,
      "hyou": 5121,
      "rareta": 5122,
      "keisei": 5123,
      "kkan": 5124,
      "rareru": 5125,
      "mou": 5126,
      "doko": 5127,
      "ryou": 5128,
      "dake": 5129,
      "nakatta": 5130,
      "soko": 5131,
      "tabe": 5132,
      "hana": 5133,
      "fuku": 5134,
      "yasu": 5135,
      "wataku": 5136,
      "yama": 5137,
      "kyo": 5138,
      "genzai": 5139,
      "boku": 5140,
      "ata": 5141,
      "kawa": 5142,
      "masen": 5143,
      "juu": 5144,
      "natte": 5145,
      "watakushi": 5146,
      "yotte": 5147,
      "hai": 5148,
      "jishin": 5149,
      "rete": 5150,
      "oka": 5151,
      "kagaku": 5152,
      "natta": 5153,
      "karu": 5154,
      "nari": 5155,
      "mata": 5156,
      "kuru": 5157,
      "gai": 5158,
      "kari": 5159,
      "shakai": 5160,
      "koui": 5161,
      "yori": 5162,
      "setsu": 5163,
      "reru": 5164,
      "tokoro": 5165,
      "jutsu": 5166,
      "saku": 5167,
      "ttai": 5168,
      "ningen": 5169,
      "tame": 5170,
      "kankyou": 5171,
      "ooku": 5172,
      "watashi": 5173,
      "tsukuru": 5174,
      "sugi": 5175,
      "jibun": 5176,
      "shitsu": 5177,
      "keru": 5178,
      "kishi": 5179,
      "shikashi": 5180,
      "moto": 5181,
      "mari": 5182,
      "itte": 5183,
      "deshita": 5184,
      "nde": 5185,
      "arimasu": 5186,
      "koe": 5187,
      "zettai": 5188,
      "kkanteki": 5189,
      "rekishi": 5190,
      "dekiru": 5191,
      "tsuka": 5192,
      "itta": 5193,
      "kobutsu": 5194,
      "miru": 5195,
      "shoku": 5196,
      "shimasu": 5197,
      "gijutsu": 5198,
      "gyou": 5199,
      "joushiki": 5200,
      "atta": 5201,
      "hodo": 5202,
      "koko": 5203,
      "tsukurareta": 5204,
      "zoku": 5205,
      "hitei": 5206,
      "koku": 5207,
      "rekishiteki": 5208,
      "kete": 5209,
      "kako": 5210,
      "nagara": 5211,
      "kakaru": 5212,
      "shutai": 5213,
      "haji": 5214,
      "taku": 5215,
      "douitsuteki": 5216,
      "mete": 5217,
      "tsuu": 5218,
      "sarete": 5219,
      "genjitsu": 5220,
      "bai": 5221,
      "nawa": 5222,
      "jikan": 5223,
      "waru": 5224,
      "rt": 5225,
      "atsu": 5226,
      "soku": 5227,
      "kouiteki": 5228,
      "kata": 5229,
      "tetsu": 5230,
      "gawa": 5231,
      "kedo": 5232,
      "reta": 5233,
      "sayou": 5234,
      "tteru": 5235,
      "tori": 5236,
      "kimi": 5237,
      "mura": 5238,
      "sareru": 5239,
      "machi": 5240,
      "kya": 5241,
      "osa": 5242,
      "konna": 5243,
      "aku": 5244,
      "sareta": 5245,
      "ipp": 5246,
      "shiku": 5247,
      "uchi": 5248,
      "hitotsu": 5249,
      "hatara": 5250,
      "tachiba": 5251,
      "shiro": 5252,
      "katachi": 5253,
      "tomo": 5254,
      "ete": 5255,
      "meru": 5256,
      "nichi": 5257,
      "dare": 5258,
      "katta": 5259,
      "eru": 5260,
      "suki": 5261,
      "ooki": 5262,
      "maru": 5263,
      "moku": 5264,
      "oko": 5265,
      "kangaerareru": 5266,
      "oto": 5267,
      "tanni": 5268,
      "tada": 5269,
      "taiteki": 5270,
      "motte": 5271,
      "kinou": 5272,
      "shinai": 5273,
      "kki": 5274,
      "tari": 5275,
      "ranai": 5276,
      "kkou": 5277,
      "mirai": 5278,
      "ppon": 5279,
      "goto": 5280,
      "hitsu": 5281,
      "teru": 5282,
      "mochi": 5283,
      "katsu": 5284,
      "nyuu": 5285,
      "zuka": 5286,
      "tsuite": 5287,
      "nomi": 5288,
      "sugu": 5289,
      "kuda": 5290,
      "tetsugaku": 5291,
      "ika": 5292,
      "ronri": 5293,
      "oki": 5294,
      "nippon": 5295,
      "shimashita": 5296,
      "chishiki": 5297,
      "chokkanteki": 5298,
      "suko": 5299,
      "kuu": 5300,
      "arou": 5301,
      "katte": 5302,
      "kuri": 5303,
      "inai": 5304,
      "hyougen": 5305,
      "ishiki": 5306,
      "doku": 5307,
      "atte": 5308,
      "atara": 5309,
      "wari": 5310,
      "kao": 5311,
      "seisan": 5312,
      "hanashi": 5313,
      "kake": 5314,
      "naji": 5315,
      "sunawa": 5316,
      "sunawachi": 5317,
      "ugo": 5318,
      "suu": 5319,
      "bara": 5320,
      "hiro": 5321,
      "iwa": 5322,
      "betsu": 5323,
      "yoi": 5324,
      "seru": 5325,
      "shiteru": 5326,
      "rarete": 5327,
      "toshi": 5328,
      "seki": 5329,
      "tairitsu": 5330,
      "wakara": 5331,
      "tokyo": 5332,
      "kka": 5333,
      "kyoku": 5334,
      "iro": 5335,
      "mite": 5336,
      "saki": 5337,
      "kanji": 5338,
      "mita": 5339,
      "sube": 5340,
      "ryoku": 5341,
      "matta": 5342,
      "kudasai": 5343,
      "omoi": 5344,
      "wareru": 5345,
      "hitsuyou": 5346,
      "kashi": 5347,
      "renai": 5348,
      "kankei": 5349,
      "gatte": 5350,
      "ochi": 5351,
      "motsu": 5352,
      "sonzai": 5353,
      "taishite": 5354,
      "ame": 5355,
      "seimei": 5356,
      "kano": 5357,
      "giri": 5358,
      "kangaeru": 5359,
      "yue": 5360,
      "asa": 5361,
      "onaji": 5362,
      "yoru": 5363,
      "niku": 5364,
      "osaka": 5365,
      "sukoshi": 5366,
      "tama": 5367,
      "kanojo": 5368,
      "kite": 5369,
      "mondai": 5370,
      "amari": 5371,
      "eki": 5372,
      "kojin": 5373,
      "haya": 5374,
      "dete": 5375,
      "atarashii": 5376,
      "awa": 5377,
      "gakkou": 5378,
      "tsuzu": 5379,
      "shukan": 5380,
      "imashita": 5381,
      "atae": 5382,
      "darou": 5383,
      "hataraku": 5384,
      "gata": 5385,
      "dachi": 5386,
      "matsu": 5387,
      "arimasen": 5388,
      "seibutsu": 5389,
      "mitsu": 5390,
      "heya": 5391,
      "yasui": 5392,
      "deni": 5393,
      "noko": 5394,
      "haha": 5395,
      "domo": 5396,
      "kami": 5397,
      "sudeni": 5398,
      "nao": 5399,
      "raku": 5400,
      "ike": 5401,
      "meta": 5402,
      "kodomo": 5403,
      "soshite": 5404,
      "game": 5405,
      "bakari": 5406,
      "tote": 5407,
      "hatsu": 5408,
      "mise": 5409,
      "mokuteki": 5410,
      "dakara": 5411,
      "[ja]": 5412,
      "ő": 5413,
      "ű": 5414,
      "そ": 5415,
      "な": 5416,
      "ん": 5417,
      "포": 5418,
      "�": 5419,
      "gy": 5420,
      "eg": 5421,
      "cs": 5422,
      "ál": 5423,
      "egy": 5424,
      "át": 5425,
      "ott": 5426,
      "ett": 5427,
      "meg": 5428,
      "hogy": 5429,
      "ég": 5430,
      "ól": 5431,
      "nek": 5432,
      "volt": 5433,
      "ág": 5434,
      "nk": 5435,
      "ék": 5436,
      "ít": 5437,
      "ák": 5438,
      "ud": 5439,
      "szer": 5440,
      "mind": 5441,
      "oz": 5442,
      "ép": 5443,
      "ért": 5444,
      "mond": 5445,
      "szt": 5446,
      "nak": 5447,
      "ől": 5448,
      "csak": 5449,
      "oly": 5450,
      "áll": 5451,
      "ány": 5452,
      "mint": 5453,
      "már": 5454,
      "ött": 5455,
      "nagy": 5456,
      "ész": 5457,
      "azt": 5458,
      "elő": 5459,
      "tud": 5460,
      "ény": 5461,
      "áz": 5462,
      "még": 5463,
      "köz": 5464,
      "ely": 5465,
      "ség": 5466,
      "hoz": 5467,
      "uk": 5468,
      "kez": 5469,
      "ám": 5470,
      "aj": 5471,
      "unk": 5472,
      "vagy": 5473,
      "szem": 5474,
      "ember": 5475,
      "fog": 5476,
      "mert": 5477,
      "ös": 5478,
      "ság": 5479,
      "leg": 5480,
      "ünk": 5481,
      "hát": 5482,
      "ony": 5483,
      "ezt": 5484,
      "minden": 5485,
      "ült": 5486,
      "jó": 5487,
      "kis": 5488,
      "áj": 5489,
      "úgy": 5490,
      "most": 5491,
      "ír": 5492,
      "itt": 5493,
      "elt": 5494,
      "mondta": 5495,
      "kell": 5496,
      "ált": 5497,
      "érd": 5498,
      "tö": 5499,
      "vár": 5500,
      "lát": 5501,
      "ők": 5502,
      "vet": 5503,
      "után": 5504,
      "két": 5505,
      "nap": 5506,
      "ív": 5507,
      "ály": 5508,
      "vég": 5509,
      "ök": 5510,
      "dul": 5511,
      "néz": 5512,
      "ában": 5513,
      "kül": 5514,
      "akkor": 5515,
      "szél": 5516,
      "új": 5517,
      "olyan": 5518,
      "ked": 5519,
      "hely": 5520,
      "tör": 5521,
      "ból": 5522,
      "elm": 5523,
      "ára": 5524,
      "ló": 5525,
      "volna": 5526,
      "lehet": 5527,
      "ebb": 5528,
      "sok": 5529,
      "olt": 5530,
      "eket": 5531,
      "bor": 5532,
      "fej": 5533,
      "gond": 5534,
      "akar": 5535,
      "fél": 5536,
      "úl": 5537,
      "otta": 5538,
      "valami": 5539,
      "jel": 5540,
      "éd": 5541,
      "arc": 5542,
      "hall": 5543,
      "föl": 5544,
      "ába": 5545,
      "olg": 5546,
      "kir": 5547,
      "old": 5548,
      "kérd": 5549,
      "jár": 5550,
      "úr": 5551,
      "zs": 5552,
      "élet": 5553,
      "ját": 5554,
      "ov": 5555,
      "éz": 5556,
      "vil": 5557,
      "őr": 5558,
      "ög": 5559,
      "lesz": 5560,
      "koz": 5561,
      "ább": 5562,
      "király": 5563,
      "eng": 5564,
      "igaz": 5565,
      "haj": 5566,
      "kod": 5567,
      "ról": 5568,
      "több": 5569,
      "szó": 5570,
      "ében": 5571,
      "öt": 5572,
      "nyi": 5573,
      "szól": 5574,
      "gondol": 5575,
      "egész": 5576,
      "így": 5577,
      "ős": 5578,
      "obb": 5579,
      "osan": 5580,
      "ből": 5581,
      "abb": 5582,
      "őt": 5583,
      "nál": 5584,
      "kép": 5585,
      "aztán": 5586,
      "tart": 5587,
      "beszél": 5588,
      "előtt": 5589,
      "aszt": 5590,
      "maj": 5591,
      "kör": 5592,
      "hang": 5593,
      "íz": 5594,
      "incs": 5595,
      "év": 5596,
      "ód": 5597,
      "ók": 5598,
      "hozz": 5599,
      "okat": 5600,
      "nagyon": 5601,
      "ház": 5602,
      "ped": 5603,
      "ezte": 5604,
      "etlen": 5605,
      "neki": 5606,
      "majd": 5607,
      "szony": 5608,
      "ának": 5609,
      "felé": 5610,
      "egyszer": 5611,
      "adt": 5612,
      "gyer": 5613,
      "amikor": 5614,
      "foly": 5615,
      "szak": 5616,
      "őd": 5617,
      "hú": 5618,
      "ász": 5619,
      "amely": 5620,
      "ére": 5621,
      "ilyen": 5622,
      "oda": 5623,
      "ják": 5624,
      "tár": 5625,
      "ával": 5626,
      "lak": 5627,
      "gyan": 5628,
      "ély": 5629,
      "út": 5630,
      "kezd": 5631,
      "mell": 5632,
      "mikor": 5633,
      "hez": 5634,
      "való": 5635,
      "szeret": 5636,
      "rend": 5637,
      "vissza": 5638,
      "fő": 5639,
      "asszony": 5640,
      "ről": 5641,
      "pedig": 5642,
      "szép": 5643,
      "ták": 5644,
      "öv": 5645,
      "világ": 5646,
      "maga": 5647,
      "szik": 5648,
      "éj": 5649,
      "ént": 5650,
      "jött": 5651,
      "szí": 5652,
      "gat": 5653,
      "ettem": 5654,
      "hány": 5655,
      "ást": 5656,
      "ahol": 5657,
      "őket": 5658,
      "hár": 5659,
      "nő": 5660,
      "csi": 5661,
      "talál": 5662,
      "elte": 5663,
      "látt": 5664,
      "tört": 5665,
      "hagy": 5666,
      "esz": 5667,
      "nél": 5668,
      "kut": 5669,
      "lány": 5670,
      "amit": 5671,
      "ső": 5672,
      "ellen": 5673,
      "magát": 5674,
      "ugyan": 5675,
      "külön": 5676,
      "asz": 5677,
      "mindig": 5678,
      "lép": 5679,
      "talán": 5680,
      "szor": 5681,
      "illan": 5682,
      "nincs": 5683,
      "vagyok": 5684,
      "telen": 5685,
      "ismer": 5686,
      "isten": 5687,
      "ított": 5688,
      "jobb": 5689,
      "ves": 5690,
      "dult": 5691,
      "juk": 5692,
      "szen": 5693,
      "öm": 5694,
      "lett": 5695,
      "egyik": 5696,
      "bár": 5697,
      "szi": 5698,
      "szív": 5699,
      "azon": 5700,
      "eszt": 5701,
      "föld": 5702,
      "kuty": 5703,
      "pillan": 5704,
      "fér": 5705,
      "től": 5706,
      "tű": 5707,
      "ébe": 5708,
      "tött": 5709,
      "barát": 5710,
      "íg": 5711,
      "ahogy": 5712,
      "eh": 5713,
      "ep": 5714,
      "jelent": 5715,
      "tat": 5716,
      "szeg": 5717,
      "mintha": 5718,
      "egyen": 5719,
      "szab": 5720,
      "bizony": 5721,
      "jon": 5722,
      "öreg": 5723,
      "dolg": 5724,
      "csap": 5725,
      "tiszt": 5726,
      "állt": 5727,
      "ancs": 5728,
      "idő": 5729,
      "ügy": 5730,
      "miért": 5731,
      "ót": 5732,
      "csin": 5733,
      "ének": 5734,
      "vér": 5735,
      "jól": 5736,
      "alatt": 5737,
      "mely": 5738,
      "semmi": 5739,
      "nyug": 5740,
      "vág": 5741,
      "követ": 5742,
      "össze": 5743,
      "mad": 5744,
      "acs": 5745,
      "fiú": 5746,
      "másik": 5747,
      "jön": 5748,
      "szám": 5749,
      "rész": 5750,
      "kér": 5751,
      "ével": 5752,
      "[hu]": 5753,
      "%": 5754,
      "0": 5755,
      "6": 5756,
      "7": 5757,
      "8": 5758,
      "9": 5759,
      "A": 5760,
      "B": 5761,
      "C": 5762,
      "D": 5763,
      "E": 5764,
      "F": 5765,
      "G": 5766,
      "H": 5767,
      "I": 5768,
      "J": 5769,
      "K": 5770,
      "L": 5771,
      "M": 5772,
      "N": 5773,
      "O": 5774,
      "P": 5775,
      "Q": 5776,
      "R": 5777,
      "S": 5778,
      "T": 5779,
      "U": 5780,
      "V": 5781,
      "W": 5782,
      "X": 5783,
      "Y": 5784,
      "Z": 5785,
      "Ł": 5786,
      "α": 5787,
      "ς": 5788,
      "♥": 5789,
      "か": 5790,
      "ズ": 5791,
      "因": 5792,
      "国": 5793,
      "怎": 5794,
      "抱": 5795,
      "推": 5796,
      "有": 5797,
      "樣": 5798,
      "為": 5799,
      "群": 5800,
      "麼": 5801,
      "eo": 5802,
      "eul": 5803,
      "eun": 5804,
      "eon": 5805,
      "ae": 5806,
      "yeon": 5807,
      "yeo": 5808,
      "ui": 5809,
      "hae": 5810,
      "geo": 5811,
      "neun": 5812,
      "ssda": 5813,
      "seo": 5814,
      "eong": 5815,
      "kk": 5816,
      "jeo": 5817,
      "deul": 5818,
      "eum": 5819,
      "yeong": 5820,
      "geos": 5821,
      "hag": 5822,
      "aneun": 5823,
      "iss": 5824,
      "dae": 5825,
      "eob": 5826,
      "eol": 5827,
      "geu": 5828,
      "jeong": 5829,
      "sae": 5830,
      "doe": 5831,
      "geul": 5832,
      "eulo": 5833,
      "bn": 5834,
      "sang": 5835,
      "bnida": 5836,
      "haneun": 5837,
      "jeog": 5838,
      "saeng": 5839,
      "ineun": 5840,
      "anh": 5841,
      "salam": 5842,
      "eom": 5843,
      "nae": 5844,
      "gwa": 5845,
      "yeol": 5846,
      "eseo": 5847,
      "myeon": 5848,
      "ttae": 5849,
      "hw": 5850,
      "eobs": 5851,
      "jang": 5852,
      "gw": 5853,
      "ileul": 5854,
      "yeog": 5855,
      "jeon": 5856,
      "sig": 5857,
      "jag": 5858,
      "hago": 5859,
      "deun": 5860,
      "seong": 5861,
      "gag": 5862,
      "ham": 5863,
      "dang": 5864,
      "leul": 5865,
      "sil": 5866,
      "dong": 5867,
      "handa": 5868,
      "eossda": 5869,
      "aeg": 5870,
      "seon": 5871,
      "haessda": 5872,
      "issda": 5873,
      "ege": 5874,
      "mul": 5875,
      "jung": 5876,
      "jig": 5877,
      "issneun": 5878,
      "geun": 5879,
      "seubnida": 5880,
      "won": 5881,
      "daneun": 5882,
      "eoh": 5883,
      "deo": 5884,
      "gam": 5885,
      "jal": 5886,
      "haeng": 5887,
      "yang": 5888,
      "bang": 5889,
      "jae": 5890,
      "saenggag": 5891,
      "hage": 5892,
      "sog": 5893,
      "eoss": 5894,
      "jasin": 5895,
      "jil": 5896,
      "eog": 5897,
      "gyeong": 5898,
      "gong": 5899,
      "deon": 5900,
      "haess": 5901,
      "eung": 5902,
      "joh": 5903,
      "nal": 5904,
      "myeong": 5905,
      "eona": 5906,
      "igo": 5907,
      "gyeol": 5908,
      "yag": 5909,
      "gwan": 5910,
      "uli": 5911,
      "yong": 5912,
      "lyeo": 5913,
      "jog": 5914,
      "eohge": 5915,
      "bog": 5916,
      "tong": 5917,
      "manh": 5918,
      "jeol": 5919,
      "geol": 5920,
      "aga": 5921,
      "naneun": 5922,
      "uneun": 5923,
      "cheol": 5924,
      "dol": 5925,
      "bad": 5926,
      "hamyeon": 5927,
      "yeossda": 5928,
      "ibnida": 5929,
      "gye": 5930,
      "eos": 5931,
      "hwal": 5932,
      "salamdeul": 5933,
      "jiman": 5934,
      "dangsin": 5935,
      "jib": 5936,
      "ttaemun": 5937,
      "ib": 5938,
      "eneun": 5939,
      "eug": 5940,
      "jeom": 5941,
      "geuleon": 5942,
      "hwa": 5943,
      "assda": 5944,
      "beob": 5945,
      "bae": 5946,
      "yeoss": 5947,
      "chin": 5948,
      "chaeg": 5949,
      "geon": 5950,
      "naega": 5951,
      "iga": 5952,
      "sigan": 5953,
      "gil": 5954,
      "hyeon": 5955,
      "lyeog": 5956,
      "gug": 5957,
      "pyeon": 5958,
      "wae": 5959,
      "jul": 5960,
      "seul": 5961,
      "deung": 5962,
      "hajiman": 5963,
      "eumyeon": 5964,
      "pil": 5965,
      "nyeon": 5966,
      "tae": 5967,
      "pyo": 5968,
      "jineun": 5969,
      "beon": 5970,
      "hada": 5971,
      "seol": 5972,
      "sip": 5973,
      "daleun": 5974,
      "salm": 5975,
      "gyo": 5976,
      "cheon": 5977,
      "hagi": 5978,
      "cheoleom": 5979,
      "gal": 5980,
      "ila": 5981,
      "kkaji": 5982,
      "anhneun": 5983,
      "habnida": 5984,
      "tteon": 5985,
      "haeseo": 5986,
      "doenda": 5987,
      "ttal": 5988,
      "ilo": 5989,
      "seub": 5990,
      "byeon": 5991,
      "myeo": 5992,
      "beol": 5993,
      "jeung": 5994,
      "chim": 5995,
      "hwang": 5996,
      "euneun": 5997,
      "jong": 5998,
      "boda": 5999,
      "nol": 6000,
      "neom": 6001,
      "buteo": 6002,
      "jigeum": 6003,
      "eobsda": 6004,
      "daelo": 6005,
      "yul": 6006,
      "pyeong": 6007,
      "seoneun": 6008,
      "salang": 6009,
      "seut": 6010,
      "heom": 6011,
      "hyang": 6012,
      "gwang": 6013,
      "eobsneun": 6014,
      "hwag": 6015,
      "gess": 6016,
      "jagi": 6017,
      "ileon": 6018,
      "wihae": 6019,
      "daehan": 6020,
      "gaji": 6021,
      "meog": 6022,
      "jyeo": 6023,
      "chaj": 6024,
      "byeong": 6025,
      "eod": 6026,
      "gyeo": 6027,
      "eoji": 6028,
      "gul": 6029,
      "modeun": 6030,
      "insaeng": 6031,
      "geulae": 6032,
      "sasil": 6033,
      "sib": 6034,
      "chal": 6035,
      "ilago": 6036,
      "geum": 6037,
      "doeneun": 6038,
      "bol": 6039,
      "gajang": 6040,
      "geuligo": 6041,
      "hyeong": 6042,
      "haengbog": 6043,
      "chul": 6044,
      "chae": 6045,
      "mang": 6046,
      "dam": 6047,
      "choe": 6048,
      "sijag": 6049,
      "cheong": 6050,
      "ilaneun": 6051,
      "ulineun": 6052,
      "aen": 6053,
      "kke": 6054,
      "munje": 6055,
      "teu": 6056,
      "geuneun": 6057,
      "bge": 6058,
      "cheo": 6059,
      "baeg": 6060,
      "jug": 6061,
      "sangdae": 6062,
      "geugeos": 6063,
      "dog": 6064,
      "eus": 6065,
      "jab": 6066,
      "hyeo": 6067,
      "tteohge": 6068,
      "chil": 6069,
      "swi": 6070,
      "jileul": 6071,
      "chang": 6072,
      "ganeun": 6073,
      "iji": 6074,
      "dago": 6075,
      "yohan": 6076,
      "teug": 6077,
      "ppun": 6078,
      "aleul": 6079,
      "haengdong": 6080,
      "sesang": 6081,
      "edo": 6082,
      "mandeul": 6083,
      "amyeon": 6084,
      "kkae": 6085,
      "bag": 6086,
      "ideul": 6087,
      "pum": 6088,
      "meol": 6089,
      "neul": 6090,
      "hamkke": 6091,
      "chung": 6092,
      "dab": 6093,
      "yug": 6094,
      "sag": 6095,
      "gwangye": 6096,
      "ileohge": 6097,
      "balo": 6098,
      "neunde": 6099,
      "hamyeo": 6100,
      "geuleoh": 6101,
      "anila": 6102,
      "bangbeob": 6103,
      "dasi": 6104,
      "byeol": 6105,
      "gyeon": 6106,
      "gamjeong": 6107,
      "oneul": 6108,
      "janeun": 6109,
      "yeom": 6110,
      "lago": 6111,
      "igi": 6112,
      "hwan": 6113,
      "teul": 6114,
      "eoseo": 6115,
      "sik": 6116,
      "jaga": 6117,
      "geuleom": 6118,
      "geuleona": 6119,
      "jeongdo": 6120,
      "gyeog": 6121,
      "geuleohge": 6122,
      "geudeul": 6123,
      "eut": 6124,
      "imyeon": 6125,
      "jjae": 6126,
      "keun": 6127,
      "isang": 6128,
      "malhaessda": 6129,
      "euge": 6130,
      "nop": 6131,
      "ingan": 6132,
      "bomyeon": 6133,
      "taeg": 6134,
      "dwi": 6135,
      "saneun": 6136,
      "wan": 6137,
      "anhgo": 6138,
      "nugu": 6139,
      "sung": 6140,
      "damyeon": 6141,
      "adeul": 6142,
      "peul": 6143,
      "ttala": 6144,
      "geosdo": 6145,
      "aji": 6146,
      "meon": 6147,
      "eumyeo": 6148,
      "dolog": 6149,
      "neung": 6150,
      "modu": 6151,
      "[ko]": 6152,
      "\u0014": 6153,
      "\u0016": 6154,
      "$": 6155,
      "*": 6156,
      "|": 6157,
      "°": 6158,
      "º": 6159,
      "ँ": 6160,
      "ं": 6161,
      "ः": 6162,
      "अ": 6163,
      "आ": 6164,
      "इ": 6165,
      "ई": 6166,
      "उ": 6167,
      "ऊ": 6168,
      "ऋ": 6169,
      "ऎ": 6170,
      "ए": 6171,
      "ऐ": 6172,
      "ऑ": 6173,
      "ऒ": 6174,
      "ओ": 6175,
      "औ": 6176,
      "क": 6177,
      "ख": 6178,
      "ग": 6179,
      "घ": 6180,
      "ङ": 6181,
      "च": 6182,
      "छ": 6183,
      "ज": 6184,
      "झ": 6185,
      "ञ": 6186,
      "ट": 6187,
      "ठ": 6188,
      "ड": 6189,
      "ढ": 6190,
      "ण": 6191,
      "त": 6192,
      "थ": 6193,
      "द": 6194,
      "ध": 6195,
      "न": 6196,
      "ऩ": 6197,
      "प": 6198,
      "फ": 6199,
      "ब": 6200,
      "भ": 6201,
      "म": 6202,
      "य": 6203,
      "र": 6204,
      "ऱ": 6205,
      "ल": 6206,
      "ळ": 6207,
      "व": 6208,
      "श": 6209,
      "ष": 6210,
      "स": 6211,
      "ह": 6212,
      "़": 6213,
      "ा": 6214,
      "ि": 6215,
      "ी": 6216,
      "ु": 6217,
      "ू": 6218,
      "ृ": 6219,
      "ॄ": 6220,
      "ॅ": 6221,
      "ॆ": 6222,
      "े": 6223,
      "ै": 6224,
      "ॉ": 6225,
      "ॊ": 6226,
      "ो": 6227,
      "ौ": 6228,
      "्": 6229,
      "ॐ": 6230,
      "ॖ": 6231,
      "क़": 6232,
      "ख़": 6233,
      "ग़": 6234,
      "ज़": 6235,
      "ड़": 6236,
      "ढ़": 6237,
      "फ़": 6238,
      "य़": 6239,
      "ॠ": 6240,
      "।": 6241,
      "॥": 6242,
      "०": 6243,
      "१": 6244,
      "२": 6245,
      "३": 6246,
      "४": 6247,
      "५": 6248,
      "६": 6249,
      "७": 6250,
      "८": 6251,
      "९": 6252,
      "॰": 6253,
      "ॲ": 6254,
      "​": 6255,
      "‌": 6256,
      "‍": 6257,
      "‎": 6258,
      "₹": 6259,
      "के": 6260,
      "है": 6261,
      "ें": 6262,
      "्र": 6263,
      "ार": 6264,
      "ने": 6265,
      "या": 6266,
      "में": 6267,
      "से": 6268,
      "की": 6269,
      "का": 6270,
      "ों": 6271,
      "ता": 6272,
      "कर": 6273,
      "स्": 6274,
      "कि": 6275,
      "को": 6276,
      "र्": 6277,
      "ना": 6278,
      "क्": 6279,
      "ही": 6280,
      "और": 6281,
      "पर": 6282,
      "ते": 6283,
      "हो": 6284,
      "प्र": 6285,
      "ान": 6286,
      "्य": 6287,
      "ला": 6288,
      "वा": 6289,
      "ले": 6290,
      "सा": 6291,
      "हैं": 6292,
      "लि": 6293,
      "जा": 6294,
      "हा": 6295,
      "भी": 6296,
      "वि": 6297,
      "इस": 6298,
      "ती": 6299,
      "न्": 6300,
      "रा": 6301,
      "मा": 6302,
      "दे": 6303,
      "दि": 6304,
      "बा": 6305,
      "ति": 6306,
      "था": 6307,
      "नि": 6308,
      "कार": 6309,
      "एक": 6310,
      "हीं": 6311,
      "हु": 6312,
      "ंग": 6313,
      "ैं": 6314,
      "नी": 6315,
      "सी": 6316,
      "अप": 6317,
      "त्": 6318,
      "नहीं": 6319,
      "री": 6320,
      "मे": 6321,
      "मु": 6322,
      "ित": 6323,
      "तो": 6324,
      "पा": 6325,
      "ली": 6326,
      "लिए": 6327,
      "गा": 6328,
      "ल्": 6329,
      "रह": 6330,
      "रे": 6331,
      "क्ष": 6332,
      "मैं": 6333,
      "सम": 6334,
      "उस": 6335,
      "जि": 6336,
      "त्र": 6337,
      "मि": 6338,
      "चा": 6339,
      "ोग": 6340,
      "सं": 6341,
      "द्": 6342,
      "सि": 6343,
      "आप": 6344,
      "तु": 6345,
      "दा": 6346,
      "कु": 6347,
      "यों": 6348,
      "वे": 6349,
      "जी": 6350,
      "्या": 6351,
      "उन": 6352,
      "िक": 6353,
      "ये": 6354,
      "भा": 6355,
      "्ट": 6356,
      "हम": 6357,
      "स्ट": 6358,
      "शा": 6359,
      "ड़": 6360,
      "ंद": 6361,
      "खा": 6362,
      "म्": 6363,
      "श्": 6364,
      "यह": 6365,
      "सक": 6366,
      "पू": 6367,
      "किया": 6368,
      "अपने": 6369,
      "रू": 6370,
      "सु": 6371,
      "मी": 6372,
      "हि": 6373,
      "जो": 6374,
      "थे": 6375,
      "रि": 6376,
      "दी": 6377,
      "थी": 6378,
      "गी": 6379,
      "लोग": 6380,
      "गया": 6381,
      "तर": 6382,
      "न्ह": 6383,
      "च्": 6384,
      "वार": 6385,
      "बी": 6386,
      "प्": 6387,
      "दो": 6388,
      "टी": 6389,
      "शि": 6390,
      "करने": 6391,
      "गे": 6392,
      "ैसे": 6393,
      "इन": 6394,
      "ंड": 6395,
      "साथ": 6396,
      "पु": 6397,
      "बे": 6398,
      "बार": 6399,
      "वी": 6400,
      "अन": 6401,
      "हर": 6402,
      "उन्ह": 6403,
      "होता": 6404,
      "जब": 6405,
      "कुछ": 6406,
      "मान": 6407,
      "क्र": 6408,
      "बि": 6409,
      "पह": 6410,
      "फि": 6411,
      "सर": 6412,
      "ारी": 6413,
      "रो": 6414,
      "दू": 6415,
      "कहा": 6416,
      "तक": 6417,
      "शन": 6418,
      "ब्": 6419,
      "स्थ": 6420,
      "वह": 6421,
      "बाद": 6422,
      "ओं": 6423,
      "गु": 6424,
      "ज्": 6425,
      "्रे": 6426,
      "गर": 6427,
      "रहे": 6428,
      "वर्": 6429,
      "हू": 6430,
      "ार्": 6431,
      "पी": 6432,
      "बहु": 6433,
      "मुझ": 6434,
      "्रा": 6435,
      "दिया": 6436,
      "सब": 6437,
      "करते": 6438,
      "अपनी": 6439,
      "बहुत": 6440,
      "कह": 6441,
      "टे": 6442,
      "हुए": 6443,
      "किसी": 6444,
      "रहा": 6445,
      "ष्ट": 6446,
      "ज़": 6447,
      "बना": 6448,
      "सो": 6449,
      "डि": 6450,
      "कोई": 6451,
      "व्य": 6452,
      "बात": 6453,
      "रु": 6454,
      "वो": 6455,
      "मुझे": 6456,
      "द्ध": 6457,
      "चार": 6458,
      "मेरे": 6459,
      "वर": 6460,
      "्री": 6461,
      "जाता": 6462,
      "नों": 6463,
      "प्रा": 6464,
      "देख": 6465,
      "टा": 6466,
      "क्या": 6467,
      "अध": 6468,
      "लग": 6469,
      "लो": 6470,
      "पि": 6471,
      "यु": 6472,
      "चे": 6473,
      "जिस": 6474,
      "ंत": 6475,
      "ानी": 6476,
      "पै": 6477,
      "जन": 6478,
      "ारे": 6479,
      "ची": 6480,
      "मिल": 6481,
      "दु": 6482,
      "देश": 6483,
      "च्छ": 6484,
      "ष्": 6485,
      "सू": 6486,
      "खे": 6487,
      "चु": 6488,
      "िया": 6489,
      "लगा": 6490,
      "बु": 6491,
      "उनके": 6492,
      "ज्ञ": 6493,
      "क्षा": 6494,
      "तरह": 6495,
      "्यादा": 6496,
      "वाले": 6497,
      "पूर्": 6498,
      "मैंने": 6499,
      "काम": 6500,
      "रूप": 6501,
      "होती": 6502,
      "उप": 6503,
      "जान": 6504,
      "प्रकार": 6505,
      "भार": 6506,
      "मन": 6507,
      "हुआ": 6508,
      "टर": 6509,
      "हूँ": 6510,
      "परि": 6511,
      "पास": 6512,
      "अनु": 6513,
      "राज": 6514,
      "लोगों": 6515,
      "अब": 6516,
      "समझ": 6517,
      "डी": 6518,
      "मौ": 6519,
      "शु": 6520,
      "चि": 6521,
      "पे": 6522,
      "कृ": 6523,
      "सकते": 6524,
      "मह": 6525,
      "योग": 6526,
      "दर्": 6527,
      "उसे": 6528,
      "ंध": 6529,
      "डा": 6530,
      "जाए": 6531,
      "बो": 6532,
      "ूल": 6533,
      "मो": 6534,
      "ोंने": 6535,
      "ंस": 6536,
      "तुम": 6537,
      "पहले": 6538,
      "बता": 6539,
      "तथा": 6540,
      "यो": 6541,
      "गई": 6542,
      "उत्": 6543,
      "सकता": 6544,
      "कम": 6545,
      "ज्यादा": 6546,
      "रख": 6547,
      "समय": 6548,
      "ारा": 6549,
      "अगर": 6550,
      "स्त": 6551,
      "चल": 6552,
      "फिर": 6553,
      "वारा": 6554,
      "करना": 6555,
      "शी": 6556,
      "गए": 6557,
      "बन": 6558,
      "ौर": 6559,
      "होने": 6560,
      "चाह": 6561,
      "खु": 6562,
      "हाँ": 6563,
      "उन्हें": 6564,
      "उन्होंने": 6565,
      "छो": 6566,
      "म्ह": 6567,
      "प्रति": 6568,
      "निक": 6569,
      "वन": 6570,
      "्यू": 6571,
      "रही": 6572,
      "तुम्ह": 6573,
      "जैसे": 6574,
      "ियों": 6575,
      "क्यों": 6576,
      "लों": 6577,
      "फ़": 6578,
      "ंत्र": 6579,
      "होते": 6580,
      "क्ति": 6581,
      "त्य": 6582,
      "कर्": 6583,
      "कई": 6584,
      "वं": 6585,
      "किन": 6586,
      "पो": 6587,
      "कारण": 6588,
      "ड़ी": 6589,
      "भि": 6590,
      "इसके": 6591,
      "बर": 6592,
      "उसके": 6593,
      "द्वारा": 6594,
      "शे": 6595,
      "कॉ": 6596,
      "दिन": 6597,
      "न्न": 6598,
      "ड़ा": 6599,
      "स्व": 6600,
      "निर्": 6601,
      "मुख": 6602,
      "लिया": 6603,
      "टि": 6604,
      "ज्ञान": 6605,
      "क्त": 6606,
      "द्र": 6607,
      "ग्": 6608,
      "क्स": 6609,
      "मै": 6610,
      "गो": 6611,
      "जे": 6612,
      "ट्र": 6613,
      "मार": 6614,
      "त्व": 6615,
      "धार": 6616,
      "भाव": 6617,
      "करता": 6618,
      "खि": 6619,
      "कं": 6620,
      "चाहि": 6621,
      "यर": 6622,
      "प्त": 6623,
      "कों": 6624,
      "ंच": 6625,
      "जु": 6626,
      "मत": 6627,
      "अच्छ": 6628,
      "हुई": 6629,
      "कभी": 6630,
      "लेकिन": 6631,
      "भू": 6632,
      "अपना": 6633,
      "दूस": 6634,
      "चाहिए": 6635,
      "यू": 6636,
      "घर": 6637,
      "सबसे": 6638,
      "मेरी": 6639,
      "नाम": 6640,
      "ढ़": 6641,
      "ंट": 6642,
      "ेंगे": 6643,
      "बै": 6644,
      "फा": 6645,
      "एवं": 6646,
      "यी": 6647,
      "ग्र": 6648,
      "क्षे": 6649,
      "आज": 6650,
      "आपको": 6651,
      "भाग": 6652,
      "ठा": 6653,
      "कै": 6654,
      "भारत": 6655,
      "उनकी": 6656,
      "पहु": 6657,
      "सभी": 6658,
      "धा": 6659,
      "णा": 6660,
      "सान": 6661,
      "होगा": 6662,
      "तब": 6663,
      "संग": 6664,
      "पर्": 6665,
      "अव": 6666,
      "तना": 6667,
      "गि": 6668,
      "यन": 6669,
      "स्था": 6670,
      "चित": 6671,
      "ट्": 6672,
      "छा": 6673,
      "जाने": 6674,
      "क्षेत्र": 6675,
      "वाली": 6676,
      "पूर्ण": 6677,
      "समा": 6678,
      "कारी": 6679,
      "[hi]": 6680,
      "[chorus]": 6681,
      "[solo]": 6682,
      "[intro]": 6683,
      "[outro]": 6684,
      "[inst]": 6685,
      "[pre-chorus]": 6686,
      "[end]": 6687,
      "[start]": 6688,
      "[verse]": 6689,
      "[hook]": 6690,
      "[bridge]": 6691,
      "[break]": 6692,
      "[vi]": 6693,
      "ĩ": 6694,
      "ũ": 6695,
      "ơ": 6696,
      "ư": 6697,
      "ạ": 6698,
      "ả": 6699,
      "ấ": 6700,
      "ầ": 6701,
      "ẩ": 6702,
      "ẫ": 6703,
      "ậ": 6704,
      "ắ": 6705,
      "ằ": 6706,
      "ẳ": 6707,
      "ẵ": 6708,
      "ặ": 6709,
      "ẹ": 6710,
      "ẻ": 6711,
      "ẽ": 6712,
      "ế": 6713,
      "ề": 6714,
      "ể": 6715,
      "ễ": 6716,
      "ệ": 6717,
      "ỉ": 6718,
      "ị": 6719,
      "ọ": 6720,
      "ỏ": 6721,
      "ố": 6722,
      "ồ": 6723,
      "ổ": 6724,
      "ỗ": 6725,
      "ộ": 6726,
      "ớ": 6727,
      "ờ": 6728,
      "ở": 6729,
      "ỡ": 6730,
      "ợ": 6731,
      "ụ": 6732,
      "ủ": 6733,
      "ứ": 6734,
      "ừ": 6735,
      "ử": 6736,
      "ữ": 6737,
      "ự": 6738,
      "ỳ": 6739,
      "ỷ": 6740,
      "ỹ": 6741,
      "nh": 6742,
      "ời": 6743,
      "kh": 6744,
      "ôi": 6745,
      "ình": 6746,
      "êu": 6747,
      "ông": 6748,
      "yêu": 6749,
      "ười": 6750,
      "ơi": 6751,
      "người": 6752,
      "ày": 6753,
      "không": 6754,
      "tình": 6755,
      "iế": 6756,
      "đi": 6757,
      "ươ": 6758,
      "đâ": 6759,
      "ương": 6760,
      "mộ": 6761,
      "ưa": 6762,
      "đã": 6763,
      "ướ": 6764,
      "như": 6765,
      "òn": 6766,
      "trong": 6767,
      "ngày": 6768,
      "còn": 6769,
      "một": 6770,
      "ồi": 6771,
      "êm": 6772,
      "òng": 6773,
      "về": 6774,
      "ước": 6775,
      "xa": 6776,
      "và": 6777,
      "nhau": 6778,
      "đời": 6779,
      "ừng": 6780,
      "iề": 6781,
      "rồi": 6782,
      "mình": 6783,
      "lạ": 6784,
      "nhớ": 6785,
      "ững": 6786,
      "tôi": 6787,
      "bên": 6788,
      "những": 6789,
      "ến": 6790,
      "sao": 6791,
      "ôn": 6792,
      "thương": 6793,
      "khi": 6794,
      "lòng": 6795,
      "mà": 6796,
      "ẫn": 6797,
      "ồn": 6798,
      "bao": 6799,
      "ối": 6800,
      "để": 6801,
      "sẽ": 6802,
      "iết": 6803,
      "giờ": 6804,
      "ắng": 6805,
      "vẫn": 6806,
      "đư": 6807,
      "đây": 6808,
      "ần": 6809,
      "đêm": 6810,
      "ết": 6811,
      "ới": 6812,
      "úc": 6813,
      "ấy": 6814,
      "ây": 6815,
      "đâu": 6816,
      "ào": 6817,
      "ãi": 6818,
      "biết": 6819,
      "đến": 6820,
      "ất": 6821,
      "mãi": 6822,
      "àn": 6823,
      "ói": 6824,
      "vì": 6825,
      "đau": 6826,
      "lại": 6827,
      "âu": 6828,
      "buồn": 6829,
      "iều": 6830,
      "ngh": 6831,
      "thôi": 6832,
      "mơ": 6833,
      "ắt": 6834,
      "ỗi": 6835,
      "ơn": 6836,
      "xưa": 6837,
      "ái": 6838,
      "ờng": 6839,
      "chỉ": 6840,
      "nay": 6841,
      "tay": 6842,
      "ẳng": 6843,
      "chẳng": 6844,
      "từng": 6845,
      "đôi": 6846,
      "ầu": 6847,
      "nói": 6848,
      "vui": 6849,
      "nơi": 6850,
      "áng": 6851,
      "uôn": 6852,
      "nào": 6853,
      "ăm": 6854,
      "tiế": 6855,
      "àng": 6856,
      "đó": 6857,
      "mưa": 6858,
      "ùng": 6859,
      "làm": 6860,
      "cũ": 6861,
      "này": 6862,
      "quên": 6863,
      "mắt": 6864,
      "ài": 6865,
      "ốn": 6866,
      "hoa": 6867,
      "bước": 6868,
      "ôm": 6869,
      "ộc": 6870,
      "ành": 6871,
      "ống": 6872,
      "dù": 6873,
      "với": 6874,
      "ánh": 6875,
      "lời": 6876,
      "ợc": 6877,
      "cũng": 6878,
      "ìm": 6879,
      "xin": 6880,
      "ật": 6881,
      "mẹ": 6882,
      "xuân": 6883,
      "cuộc": 6884,
      "ầm": 6885,
      "thế": 6886,
      "được": 6887,
      "nhiều": 6888,
      "đường": 6889,
      "mong": 6890,
      "iệ": 6891,
      "theo": 6892,
      "trên": 6893,
      "óng": 6894,
      "ữa": 6895,
      "âm": 6896,
      "đừng": 6897,
      "ải": 6898,
      "ắm": 6899,
      "cùng": 6900,
      "từ": 6901,
      "tìm": 6902,
      "rơi": 6903,
      "hã": 6904,
      "năm": 6905,
      "thì": 6906,
      "thật": 6907,
      "ạnh": 6908,
      "trái": 6909,
      "hãy": 6910,
      "gì": 6911,
      "hôm": 6912,
      "trời": 6913,
      "luôn": 6914,
      "chờ": 6915,
      "gian": 6916,
      "nhưng": 6917,
      "giấ": 6918,
      "ách": 6919,
      "ìn": 6920,
      "óc": 6921,
      "uyệ": 6922,
      "cô": 6923,
      "phải": 6924,
      "lúc": 6925,
      "ằng": 6926,
      "ùa": 6927,
      "ồng": 6928,
      "tiếng": 6929,
      "nhìn": 6930,
      "nghe": 6931,
      "tết": 6932,
      "cười": 6933,
      "hết": 6934,
      "đang": 6935,
      "nước": 6936,
      "nỗi": 6937,
      "nên": 6938,
      "uyện": 6939,
      "giấc": 6940,
      "cứ": 6941,
      "tư": 6942,
      "ăng": 6943,
      "ổi": 6944,
      "thêm": 6945,
      "muốn": 6946,
      "trôi": 6947,
      "ủa": 6948,
      "thấy": 6949,
      "cần": 6950,
      "xó": 6951,
      "của": 6952,
      "gió": 6953,
      "mùa": 6954,
      "lên": 6955,
      "trao": 6956,
      "sống": 6957,
      "vào": 6958,
      "đơn": 6959,
      "quay": 6960,
      "uyên": 6961,
      "đầu": 6962,
      "ốt": 6963,
      "ỡi": 6964,
      "câu": 6965,
      "hỡi": 6966,
      "nữa": 6967,
      "sau": 6968,
      "tâm": 6969,
      "ầy": 6970,
      "tháng": 6971,
      "bay": 6972,
      "mất": 6973,
      "ứa": 6974,
      "ận": 6975,
      "say": 6976,
      "nắng": 6977,
      "cả": 6978,
      "quá": 6979,
      "ngàn": 6980,
      "phút": 6981,
      "ấm": 6982,
      "ắc": 6983,
      "môi": 6984,
      "nụ": 6985,
      "khóc": 6986,
      "bóng": 6987,
      "hạnh": 6988,
      "niề": 6989,
      "ại": 6990,
      "phúc": 6991,
      "niềm": 6992,
      "duyên": 6993,
      "thay": 6994,
      "thầm": 6995,
      "lần": 6996,
      "mây": 6997,
      "thời": 6998,
      "chiều": 6999,
      "thể": 7000,
      "rằng": 7001,
      "ặng": 7002,
      "chân": 7003,
      "ội": 7004,
      "ức": 7005,
      "chuyện": 7006,
      "phai": 7007,
      "ếu": 7008,
      "ọt": 7009,
      "iệm": 7010,
      "dài": 7011,
      "niệm": 7012,
      "ường": 7013,
      "giá": 7014,
      "mộng": 7015,
      "màu": 7016,
      "lâu": 7017,
      "dòng": 7018,
      "ạn": 7019,
      "thân": 7020,
      "cách": 7021,
      "mới": 7022,
      "quen": 7023,
      "cơn": 7024,
      "iêu": 7025,
      "sông": 7026,
      "yên": 7027,
      "ẹp": 7028,
      "ợi": 7029,
      "nhà": 7030,
      "thơ": 7031,
      "ẹn": 7032,
      "iền": 7033,
      "lạnh": 7034,
      "ạt": 7035,
      "nếu": 7036,
      "vắng": 7037,
      "ều": 7038,
      "ọn": 7039,
      "cố": 7040,
      "đẹp": 7041,
      "sầu": 7042,
      "đổi": 7043,
      "ăn": 7044,
      "ngồi": 7045,
      "trăng": 7046,
      "mỗi": 7047,
      "áo": 7048,
      "ấu": 7049,
      "đưa": 7050,
      "ậy": 7051,
      "thành": 7052,
      "chưa": 7053,
      "gặ": 7054,
      "rất": 7055,
      "gặp": 7056,
      "lối": 7057,
      "xanh": 7058,
      "vàng": 7059,
      "vô": 7060,
      "trắng": 7061,
      "giây": 7062,
      "úng": 7063,
      "đợi": 7064,
      "phố": 7065,
      "ác": 7066,
      "đắng": 7067,
      "nhiêu": 7068,
      "kỷ": 7069,
      "hồn": 7070,
      "âng": 7071,
      "hương": 7072,
      "ấp": 7073,
      "ợt": 7074,
      "bình": 7075,
      "thu": 7076,
      "iến": 7077,
      "cay": 7078,
      "dối": 7079,
      "vậy": 7080,
      "đông": 7081,
      "đầy": 7082,
      "ớn": 7083,
      "tiếc": 7084,
      "lặng": 7085,
      "sáng": 7086,
      "kiế": 7087,
      "vội": 7088,
      "đành": 7089,
      "ắp": 7090,
      "trở": 7091,
      "tươi": 7092,
      "xóa": 7093,
      "bây": 7094,
      "cánh": 7095,
      "muôn": 7096,
      "ọi": 7097,
      "bờ": 7098,
      "lẽ": 7099,
      "êng": 7100,
      "xót": 7101,
      "cao": 7102,
      "hò": 7103,
      "giữa": 7104,
      "dấu": 7105,
      "hứa": 7106,
      "iêng": 7107,
      "sâu": 7108,
      "phương": 7109,
      "iệt": 7110,
      "trọn": 7111,
      "èo": 7112,
      "điều": 7113,
      "càng": 7114,
      "hơn": 7115,
      "lỗi": 7116,
      "mờ": 7117,
      "ớt": 7118,
      "bạn": 7119,
      "lỡ": 7120,
      "ền": 7121,
      "ởi": 7122,
      "chúng": 7123,
      "trách": 7124,
      "hôn": 7125,
      "nhẹ": 7126,
      "thề": 7127,
      "vỡ": 7128,
      "vương": 7129,
      "suốt": 7130,
      "mặ": 7131,
      "úa": 7132,
      "đàn": 7133,
      "ngo": 7134,
      "chơi": 7135,
      "giữ": 7136,
      "hẹn": 7137,
      "lôn": 7138,
      "ừa": 7139,
      "hồng": 7140,
      "tàn": 7141,
      "nghĩ": 7142,
      "lệ": 7143,
      "vòng": 7144,
      "éo": 7145,
      "ập": 7146,
      "ọng": 7147,
      "ứng": 7148,
      "tha": 7149,
      "chợt": 7150,
      "trông": 7151,
      "giọt": 7152,
      "kiếp": 7153,
      "sợ": 7154,
      "đắm": 7155,
      "nhé": 7156,
      "quê": 7157,
      "ưng": 7158,
      "nguyện": 7159,
      "chốn": 7160,
      "cuối": 7161,
      "tên": 7162,
      "tối": 7163,
      "ngang": 7164,
      "inh": 7165,
      "vơ": 7166,
      "đón": 7167,
      "mái": 7168,
      "riêng": 7169,
      "ngủ": 7170,
      "hiu": 7171,
      "ngoài": 7172,
      "tự": 7173,
      "ểu": 7174,
      "ọc": 7175,
      "dẫ": 7176,
      "dành": 7177,
      "hờ": 7178,
      "nồng": 7179,
      "nhỏ": 7180,
      "dẫu": 7181,
      "ãng": 7182,
      "ượ": 7183,
      "ịu": 7184,
      "ướt": 7185,
      "iếu": 7186,
      "uyến": 7187,
      "bàn": 7188,
      "gần": 7189,
      "gọi": 7190,
      "tại": 7191,
      "kho": 7192,
      "lạc": 7193,
      "hiểu": 7194,
      "biệt": 7195,
      "bởi": 7196,
      "cầu": 7197,
      "ỏi": 7198,
      "ộn": 7199,
      "thắm": 7200,
      "hình": 7201,
      "mau": 7202,
      "sóng": 7203,
      "ấn": 7204,
      "ớm": 7205,
      "thức": 7206,
      "ưới": 7207,
      "nghèo": 7208,
      "côi": 7209,
      "ngọt": 7210,
      "thiết": 7211,
      "trước": 7212,
      "trường": 7213,
      "bỏ": 7214,
      "rời": 7215,
      "tới": 7216,
      "đứng": 7217,
      "chắc": 7218,
      "phiền": 7219,
      "hoài": 7220,
      "tuổi": 7221,
      "bằng": 7222,
      "lai": 7223,
      "nở": 7224,
      "ngào": 7225,
      "dần": 7226,
      "mấy": 7227,
      "sớm": 7228,
      "vơi": 7229,
      "vọng": 7230,
      "khúc": 7231,
      "buông": 7232,
      "ùi": 7233,
      "ạc": 7234,
      "nhân": 7235,
      "khu": 7236,
      "khiến": 7237,
      "cảm": 7238,
      "vang": 7239,
      "ênh": 7240,
      "ởng": 7241,
      "chúc": 7242,
      "phận": 7243,
      "iếc": 7244,
      "mối": 7245,
      "sương": 7246,
      "ìa": 7247,
      "òa": 7248,
      "đớn": 7249,
      "khó": 7250,
      "lắm": 7251,
      "soi": 7252,
      "tương": 7253,
      "nhung": 7254,
      "nhạt": 7255,
      "tràn": 7256,
      "lầm": 7257,
      "nàng": 7258,
      "xem": 7259,
      "đứa": 7260,
      "ngập": 7261,
      "khói": 7262,
      "khát": 7263,
      "cây": 7264,
      "hè": 7265,
      "lớn": 7266,
      "mệ": 7267,
      "úp": 7268,
      "nhòa": 7269,
      "xuống": 7270,
      "bố": 7271,
      "cầm": 7272,
      "dịu": 7273,
      "vời": 7274,
      "ưu": 7275,
      "ngơ": 7276,
      "tưởng": 7277,
      "cạnh": 7278,
      "dáng": 7279,
      "kéo": 7280,
      "nát": 7281,
      "nắm": 7282,
      "vư": 7283,
      "vấn": 7284,
      "đo": 7285,
      "đem": 7286,
      "ngây": 7287,
      "tho": 7288,
      "khắc": 7289,
      "hiền": 7290,
      "lấy": 7291,
      "nỡ": 7292,
      "xôi": 7293,
      "đánh": 7294,
      "đồng": 7295,
      "chiếc": 7296,
      "khắp": 7297,
      "phí": 7298,
      "tựa": 7299,
      "hơi": 7300,
      "hàng": 7301,
      "iên": 7302,
      "kề": 7303,
      "ắn": 7304,
      "ịp": 7305,
      "ỗng": 7306,
      "ngóng": 7307,
      "trai": 7308,
      "cờ": 7309,
      "dở": 7310,
      "gái": 7311,
      "hỏi": 7312,
      "sắc": 7313,
      "tất": 7314,
      "vừa": 7315,
      "ín": 7316,
      "ngỡ": 7317,
      "ngại": 7318,
      "nhất": 7319,
      "trót": 7320,
      "khao": 7321,
      "khác": 7322,
      "ướng": 7323,
      "mặt": 7324,
      "níu": 7325,
      "mệt": 7326,
      "bỗng": 7327,
      "hớt": 7328,
      "tóc": 7329,
      "áp": 7330,
      "õi": 7331,
      "đam": 7332,
      "thở": 7333,
      "than": 7334,
      "chìm": 7335,
      "uyền": 7336,
      "buốt": 7337,
      "bơ": 7338,
      "kỉ": 7339,
      "ặt": 7340,
      "nhận": 7341,
      "khô": 7342,
      "khổ": 7343,
      "quạnh": 7344,
      "xinh": 7345,
      "hờn": 7346,
      "ượng": 7347,
      "nuối": 7348,
      "bến": 7349,
      "gầy": 7350,
      "ạy": 7351,
      "ốc": 7352,
      "ngu": 7353,
      "ngờ": 7354,
      "nhanh": 7355,
      "thường": 7356,
      "phôi": 7357,
      "dàng": 7358,
      "hạ": 7359,
      "lẻ": 7360,
      "mến": 7361,
      "áy": 7362,
      "ảnh": 7363,
      "ển": 7364,
      "nhịp": 7365,
      "thứ": 7366,
      "chớ": 7367,
      "chào": 7368,
      "trống": 7369,
      "tiên": 7370,
      "muộn": 7371,
      "băng": 7372,
      "cõi": 7373,
      "dám": 7374,
      "rối": 7375,
      "rưng": 7376,
      "xây": 7377,
      "đò": 7378,
      "đùa": 7379,
      "ậm": 7380,
      "ộng": 7381,
      "thiếu": 7382,
      "thuyền": 7383,
      "chăng": 7384,
      "khờ": 7385,
      "làng": 7386,
      "màn": 7387,
      "dưới": 7388,
      "lắng": 7389,
      "lúa": 7390,
      "lãng": 7391,
      "lìa": 7392,
      "èn": 7393,
      "ìu": 7394,
      "đèn": 7395,
      "ếm": 7396,
      "ềm": 7397,
      "ứt": 7398,
      "nhàng": 7399,
      "thang": 7400,
      "tranh": 7401,
      "biển": 7402,
      "thoáng": 7403,
      "phía": 7404,
      "bả": 7405,
      "dĩ": 7406,
      "dâng": 7407,
      "hạt": 7408,
      "lụ": 7409,
      "luyến": 7410,
      "mọi": 7411,
      "nó": 7412,
      "sánh": 7413,
      "xác": 7414,
      "ính": 7415,
      "úi": 7416,
      "ẩn": 7417,
      "ngọc": 7418,
      "nhói": 7419,
      "chôn": 7420,
      "chết": 7421,
      "trả": 7422,
      "trăm": 7423,
      "hoàng": 7424,
      "xuôi": 7425,
      "bà": 7426,
      "dừng": 7427,
      "hồ": 7428,
      "tặng": 7429,
      "đào": 7430,
      "ngừng": 7431,
      "ngăn": 7432,
      "chồng": 7433,
      "chấp": 7434,
      "chạy": 7435,
      "giông": 7436,
      "giống": 7437,
      "loi": 7438,
      "dương": 7439,
      "dân": 7440,
      "gắng": 7441,
      "hắt": 7442,
      "sinh": 7443,
      "vãng": 7444,
      "ngà": 7445,
      "ngã": 7446,
      "ngẩn": 7447,
      "chứa": 7448,
      "trần": 7449,
      "khuy": 7450,
      "phượng": 7451,
      "khuya": 7452,
      "bài": 7453,
      "cành": 7454,
      "hồi": 7455,
      "hững": 7456,
      "héo": 7457,
      "núi": 7458,
      "tơ": 7459,
      "đắp": 7460,
      "ược": 7461,
      "ực": 7462,
      "nhạc": 7463,
      "chọn": 7464,
      "quan": 7465,
      "giấu": 7466,
      "quán": 7467,
      "nghĩa": 7468,
      "tàu": 7469,
      "bã": 7470,
      "bông": 7471,
      "cớ": 7472,
      "cưới": 7473,
      "dại": 7474,
      "lều": 7475,
      "mười": 7476,
      "nô": 7477,
      "số": 7478,
      "túp": 7479,
      "đong": 7480,
      "ạch": 7481,
      "ảng": 7482,
      "ệu": 7483,
      "chút": 7484,
      "quý": 7485,
      "điệu": 7486,
      "tiền": 7487,
      "bão": 7488,
      "bụ": 7489,
      "bạc": 7490,
      "cúc": 7491,
      "dìu": 7492,
      "lê": 7493,
      "lưng": 7494,
      "lưu": 7495,
      "mòn": 7496,
      "rừng": 7497,
      "rượ": 7498,
      "tố": 7499,
      "vây": 7500,
      "đất": 7501,
      "ếp": 7502,
      "ngôi": 7503,
      "thiên": 7504,
      "giấy": 7505,
      "giận": 7506,
      "quanh": 7507,
      "làn": 7508,
      "iệu": 7509,
      "mặc": 7510,
      "vượt": 7511,
      "bụi": 7512,
      "rượu": 7513,
      "cơ": 7514,
      "cất": 7515,
      "căn": 7516,
      "góc": 7517,
      "hối": 7518,
      "hướng": 7519,
      "kêu": 7520,
      "kết": 7521,
      "kín": 7522,
      "mư": 7523,
      "rớt": 7524,
      "rộn": 7525,
      "sân": 7526,
      "tuyệ": 7527,
      "tận": 7528,
      "xe": 7529,
      "èm": 7530,
      "đen": 7531,
      "đếm": 7532,
      "ụng": 7533,
      "ửa": 7534,
      "ngược": 7535,
      "thư": 7536,
      "thai": 7537,
      "chính": 7538,
      "trẻ": 7539,
      "pha": 7540,
      "ướm": 7541,
      "khoảng": 7542,
      "đoạn": 7543,
      "mươi": 7544,
      "tuyệt": 7545,
      "bè": 7546,
      "bối": 7547,
      "bắt": 7548,
      "dường": 7549,
      "lùng": 7550,
      "tạ": 7551,
      "vầ": 7552,
      "vùi": 7553,
      "xao": 7554,
      "ục": 7555,
      "nhật": 7556,
      "thâu": 7557,
      "cháy": 7558,
      "khơi": 7559,
      "khép": 7560,
      "phong": 7561,
      "hoen": 7562,
      "nghẹn": 7563,
      "hiên": 7564,
      "mênh": 7565,
      "nguôi": 7566,
      "vầng": 7567,
      "bấy": 7568,
      "bâng": 7569,
      "gử": 7570,
      "gạt": 7571,
      "hề": 7572,
      "nàn": 7573,
      "sạch": 7574,
      "tuy": 7575,
      "tuôn": 7576,
      "đu": 7577,
      "đình": 7578,
      "đốt": 7579,
      "đại": 7580,
      "đúng": 7581,
      "ờn": 7582,
      "thèm": 7583,
      "trò": 7584,
      "trang": 7585,
      "khứ": 7586,
      "giai": 7587,
      "giới": 7588,
      "hoang": 7589,
      "cuốn": 7590,
      "xua": 7591,
      "mua": 7592,
      "giàu": 7593,
      "khuâng": 7594,
      "gửi": 7595,
      "tuyết": 7596,
      "bàng": 7597,
      "bướm": 7598,
      "công": 7599,
      "duy": 7600,
      "lớ": 7601,
      "mô": 7602,
      "nẻ": 7603,
      "rụng": 7604,
      "suy": 7605,
      "tầm": 7606,
      "vết": 7607,
      "đương": 7608,
      "ổn": 7609,
      "ngắm": 7610,
      "nguyên": 7611,
      "ngùi": 7612,
      "thà": 7613,
      "chịu": 7614,
      "màng": 7615,
      "nghiêng": 7616,
      "tiếp": 7617,
      "thơm": 7618,
      "khuất": 7619,
      "vườn": 7620,
      "bản": 7621,
      "lụa": 7622,
      "đuối": 7623,
      "lớp": 7624,
      "nẻo": 7625,
      "cát": 7626,
      "hư": 7627,
      "hành": 7628,
      "hận": 7629,
      "lung": 7630,
      "tăm": 7631,
      "xé": 7632,
      "đỏ": 7633,
      "đồi": 7634,
      "đềm": 7635,
      "ạng": 7636,
      "thủ": 7637,
      "thầy": 7638,
      "chất": 7639,
      "chàng": 7640,
      "trọng": 7641,
      "giúp": 7642,
      "quân": 7643,
      "phòng": 7644,
      "lành": 7645,
      "đóa": 7646,
      "loài": 7647,
      "thuộc": 7648,
      "kiếm": 7649,
      "nít": 7650,
      "ghen": 7651,
      "bồi": 7652,
      "biến": 7653,
      "cò": 7654,
      "cái": 7655,
      "học": 7656,
      "lấp": 7657,
      "miệt": 7658,
      "rét": 7659,
      "sự": 7660,
      "tội": 7661,
      "vợ": 7662,
      "xăm": 7663,
      "yếu": 7664,
      "ụt": 7665,
      "ngát": 7666,
      "nhẫn": 7667,
      "thừa": 7668,
      "chiến": 7669,
      "chuyến": 7670,
      "chín": 7671,
      "chặt": 7672,
      "tròn": 7673,
      "khẽ": 7674,
      "khôn": 7675,
      "khăn": 7676,
      "mài": 7677,
      "giác": 7678,
      "run": 7679,
      "hòa": 7680,
      "máu": 7681,
      "dâu": 7682,
      "gối": 7683,
      "hao": 7684,
      "kể": 7685,
      "kìa": 7686,
      "lờ": 7687,
      "lâng": 7688,
      "mỉ": 7689,
      "miền": 7690,
      "mỏi": 7691,
      "nặng": 7692,
      "rạng": 7693,
      "sư": 7694,
      "sớt": 7695,
      "vẹn": 7696,
      "xơ": 7697,
      "xôn": 7698,
      "xuyến": 7699,
      "óa": 7700,
      "ủi": 7701,
      "ngân": 7702,
      "ngất": 7703,
      "ngậm": 7704,
      "thao": 7705,
      "chén": 7706,
      "trưa": 7707,
      "trùng": 7708,
      "trinh": 7709,
      "quy": 7710,
      "điên": 7711,
      "vài": 7712,
      "tia": 7713,
      "thềm": 7714,
      "mặn": 7715,
      "khoe": 7716,
      "thủy": 7717,
      "mỉm": 7718,
      "bất": 7719,
      "biếu": 7720,
      "các": 7721,
      "dư": 7722,
      "dễ": 7723,
      "dạt": 7724,
      "dậy": 7725,
      "gót": 7726,
      "hà": 7727,
      "hóa": 7728,
      "lừa": 7729,
      "lênh": 7730,
      "mềm": 7731,
      "nức": 7732,
      "rã": 7733,
      "rỡ": 7734,
      "tỏ": 7735,
      "tơi": 7736,
      "vùng": 7737,
      "vụt": 7738,
      "xo": 7739,
      "đênh": 7740,
      "ảy": 7741,
      "ẫy": 7742,
      "ằm": 7743,
      "ễn": 7744,
      "ột": 7745,
      "ngời": 7746,
      "ngay": 7747,
      "ngần": 7748,
      "nhắc": 7749,
      "thôn": 7750,
      "thăm": 7751,
      "chan": 7752,
      "chèo": 7753,
      "phù": 7754,
      "pháo": 7755,
      "cung": 7756,
      "suối": 7757,
      "bánh": 7758,
      "bền": 7759,
      "cá": 7760,
      "cỏ": 7761,
      "canh": 7762,
      "gương": 7763,
      "gấm": 7764,
      "hàn": 7765,
      "kiều": 7766,
      "lướt": 7767,
      "mừng": 7768,
      "minh": 7769,
      "nổi": 7770,
      "rẽ": 7771,
      "ràng": 7772,
      "rung": 7773,
      "rực": 7774,
      "sắp": 7775,
      "tả": 7776,
      "tung": 7777,
      "vờ": 7778,
      "vốn": 7779,
      "vấp": 7780,
      "xô": 7781,
      "xếp": 7782,
      "ằn": 7783,
      "ngô": 7784,
      "ngơi": 7785,
      "ngùng": 7786,
      "thù": 7787,
      "thờ": 7788,
      "thanh": 7789,
      "thần": 7790,
      "chở": 7791,
      "giã": 7792,
      "giả": 7793,
      "phân": 7794,
      "xam": 7795,
      "hoan": 7796,
      "nghỉ": 7797,
      "vua": 7798,
      "chiêm": 7799,
      "thuở": 7800,
      "bộ": 7801,
      "bừng": 7802,
      "bầu": 7803,
      "bếp": 7804,
      "cào": 7805,
      "gòn": 7806,
      "gởi": 7807,
      "gục": 7808,
      "lũ": 7809,
      "lơi": 7810,
      "liệu": 7811,
      "mời": 7812,
      "mảnh": 7813,
      "nâng": 7814,
      "nằm": 7815,
      "rô": 7816,
      "rong": 7817,
      "reo": 7818,
      "sài": 7819,
      "tê": 7820,
      "tắt": 7821,
      "tủi": 7822,
      "uống": 7823,
      "vỗ": 7824,
      "óp": 7825,
      "đá": 7826,
      "đổ": 7827,
      "đậm": 7828,
      "động": 7829,
      "chứ": 7830,
      "trí": 7831,
      "trốn": 7832,
      "trầm": 7833,
      "giao": 7834,
      "phần": 7835,
      "phiêu": 7836,
      "tiễn": 7837,
      "buổi": 7838,
      "xóm": 7839,
      "cảnh": 7840,
      "giáo": 7841,
      "nuôi": 7842,
      "khoảnh": 7843,
      "chua": 7844,
      "cơm": 7845,
      "tạm": 7846,
      "bốn": 7847,
      "bầy": 7848,
      "bận": 7849,
      "bèo": 7850,
      "bán": 7851,
      "căm": 7852,
      "dắt": 7853,
      "kì": 7854,
      "kí": 7855,
      "lương": 7856,
      "lầu": 7857,
      "linh": 7858,
      "lửa": 7859,
      "mỹ": 7860,
      "mứt": 7861,
      "rót": 7862,
      "rộng": 7863,
      "tô": 7864,
      "tồn": 7865,
      "tái": 7866,
      "tốt": 7867,
      "tấm": 7868,
      "vực": 7869,
      "xứ": 7870,
      "xứng": 7871,
      "ích": 7872,
      "ùm": 7873,
      "đị": 7874,
      "đấy": 7875,
      "đều": 7876,
      "đám": 7877,
      "đứt": 7878,
      "ạm": 7879,
      "ạo": 7880,
      "ậu": 7881,
      "ễu": 7882,
      "ịch": 7883,
      "ựa": 7884,
      "nhối": 7885,
      "nhức": 7886,
      "thả": 7887,
      "thẫn": 7888,
      "thói": 7889,
      "thấu": 7890,
      "chú": 7891,
      "chông": 7892,
      "chừng": 7893,
      "chiếu": 7894,
      "trải": 7895,
      "phường": 7896,
      "ươm": 7897,
      "iện": 7898,
      "thuốc": 7899,
      "nguồn": 7900,
      "toan": 7901,
      "liễu": 7902,
      "bẽ": 7903,
      "bồ": 7904,
      "bời": 7905,
      "biếc": 7906,
      "câm": 7907,
      "dây": 7908,
      "dào": 7909,
      "dỗi": 7910,
      "dưng": 7911,
      "dặt": 7912,
      "gánh": 7913,
      "hằng": 7914,
      "hiến": 7915,
      "kẻ": 7916,
      "kệ": 7917,
      "lơ": 7918,
      "lễ": 7919,
      "lánh": 7920,
      "mù": 7921,
      "mế": 7922,
      "mồ": 7923,
      "mát": 7924,
      "móc": 7925,
      "nợ": 7926,
      "nương": 7927,
      "nối": 7928,
      "nấy": 7929,
      "nội": 7930,
      "năn": 7931,
      "nửa": 7932,
      "sơ": 7933,
      "sức": 7934,
      "sáo": 7935,
      "tát": 7936,
      "tám": 7937,
      "vả": 7938,
      "vất": 7939,
      "vật": 7940,
      "õng": 7941,
      "đả": 7942,
      "đội": 7943,
      "ặn": 7944,
      "ịt": 7945,
      "ộm": 7946,
      "ngàng": 7947,
      "nhan": 7948,
      "nhấp": 7949,
      "nhắn": 7950,
      "thông": 7951,
      "thúc": 7952,
      "thùng": 7953,
      "thẹn": 7954,
      "thênh": 7955,
      "chê": 7956,
      "chúa": 7957,
      "chứng": 7958,
      "chán": 7959,
      "trà": 7960,
      "tránh": 7961,
      "khung": 7962,
      "giăng": 7963,
      "quấn": 7964,
      "phụ": 7965,
      "phôn": 7966,
      "tinh": 7967,
      "nghìn": 7968,
      "vun": 7969,
      "ruộng": 7970,
      "biên": 7971,
      "nín": 7972,
      "khua": 7973,
      "ghé": 7974,
      "thoát": 7975,
      "phím": 7976,
      "toàn": 7977,
      "lũy": 7978,
      "mếch": 7979,
      "bớt": 7980,
      "cau": 7981,
      "cương": 7982,
      "cài": 7983,
      "cải": 7984,
      "dạ": 7985,
      "dừa": 7986,
      "dọc": 7987,
      "dịch": 7988,
      "gốc": 7989,
      "kỳ": 7990,
      "mỏ": 7991,
      "mít": 7992,
      "mịt": 7993,
      "rôn": 7994,
      "song": 7995,
      "tây": 7996,
      "tênh": 7997,
      "vã": 7998,
      "vũ": 7999,
      "vong": 8000,
      "vững": 8001,
      "viết": 8002,
      "vằng": 8003,
      "viên": 8004,
      "vẫy": 8005,
      "xúc": 8006,
      "đa": 8007,
      "đà": 8008,
      "đủ": 8009,
      "đối": 8010,
      "đàng": 8011,
      "đài": 8012,
      "ỉnh": 8013,
      "ựng": 8014,
      "ngõ": 8015,
      "ngả": 8016,
      "ngút": 8017,
      "ngọn": 8018,
      "ngắn": 8019,
      "nhờ": 8020,
      "nhánh": 8021,
      "nhắm": 8022,
      "nhoi": 8023,
      "nhiên": 8024,
      "nhằn": 8025,
      "thơi": 8026,
      "thiu": 8027,
      "thích": 8028,
      "chong": 8029,
      "chảy": 8030,
      "trào": 8031,
      "quang": 8032,
      "phi": 8033,
      "phũ": 8034,
      "phới": 8035,
      "phàng": 8036,
      "phim": 8037,
      "nghi": 8038,
      "tưng": 8039,
      "kiêu": 8040,
      "lẽo": 8041,
      "tham": 8042,
      "nuốt": 8043,
      "bảo": 8044,
      "quýt": 8045,
      "sưởi": 8046,
      "xoay": 8047,
      "định": 8048,
      "mỏng": 8049,
      "vũng": 8050,
      "bể": 8051,
      "bãi": 8052,
      "bát": 8053,
      "bổn": 8054,
      "bóp": 8055,
      "cám": 8056,
      "dệ": 8057,
      "danh": 8058,
      "dạy": 8059,
      "dứt": 8060,
      "diệu": 8061,
      "gấp": 8062,
      "hân": 8063,
      "hái": 8064,
      "hải": 8065,
      "hót": 8066,
      "lay": 8067,
      "lây": 8068,
      "lứa": 8069,
      "lợi": 8070,
      "lựa": 8071,
      "mông": 8072,
      "mướt": 8073,
      "mùi": 8074,
      "nốt": 8075,
      "sợi": 8076,
      "sướng": 8077,
      "tờ": 8078,
      "tạnh": 8079,
      "tập": 8080,
      "táp": 8081,
      "tỉnh": 8082,
      "việ": 8083,
      "vút": 8084,
      "vầy": 8085,
      "vướng": 8086,
      "võng": 8087,
      "xảy": 8088,
      "đê": 8089,
      "đỗ": 8090,
      "đan": 8091,
      "đằng": 8092,
      "đắn": 8093,
      "đặt": 8094,
      "đáy": 8095,
      "đạo": 8096,
      "ĩnh": 8097,
      "ưởng": 8098,
      "ản": 8099,
      "ện": 8100,
      "ốm": 8101,
      "ổng": 8102,
      "ửu": 8103,
      "nguy": 8104,
      "ngón": 8105,
      "nhủ": 8106,
      "nhọc": 8107,
      "thử": 8108,
      "thưa": 8109,
      "thước": 8110,
      "thách": 8111,
      "thằng": 8112,
      "thổi": 8113,
      "thấm": 8114,
      "thấp": 8115,
      "thét": 8116,
      "chị": 8117,
      "chối": 8118,
      "chống": 8119,
      "chập": 8120,
      "chắn": 8121,
      "chép": 8122,
      "chậm": 8123,
      "trưởng": 8124,
      "phu": 8125,
      "phép": 8126,
      "iếp": 8127,
      "tiêu": 8128,
      "lạy": 8129,
      "hoàn": 8130,
      "chinh": 8131,
      "sum": 8132,
      "ruột": 8133,
      "ngoan": 8134,
      "khoác": 8135,
      "miên": 8136,
      "khóe": 8137,
      "mệnh": 8138,
      "đoàn": 8139,
      "lục": 8140,
      "tỏa": 8141,
      "dệt": 8142,
      "việc": 8143,
      "bong": 8144,
      "bội": 8145,
      "bọt": 8146,
      "biền": 8147,
      "báo": 8148,
      "bám": 8149,
      "bùi": 8150,
      "bẫy": 8151,
      "cà": 8152,
      "cắt": 8153,
      "cống": 8154,
      "cút": 8155,
      "coi": 8156,
      "cạm": 8157,
      "cửu": 8158,
      "dẫn": 8159,
      "dặn": 8160,
      "gợi": 8161,
      "góp": 8162,
      "hẳ": 8163,
      "họ": 8164,
      "hội": 8165,
      "hiếu": 8166,
      "hậu": 8167,
      "kìm": 8168,
      "kịp": 8169,
      "lanh": 8170,
      "liều": 8171,
      "lường": 8172,
      "liêu": 8173,
      "lăn": 8174,
      "lượng": 8175,
      "lính": 8176,
      "mở": 8177,
      "mốt": 8178,
      "nè": 8179,
      "nê": 8180,
      "nữ": 8181,
      "nông": 8182,
      "nâu": 8183,
      "nóng": 8184,
      "nếm": 8185,
      "oán": 8186,
      "rãi": 8187,
      "rách": 8188,
      "réo": 8189,
      "sẵ": 8190,
      "sưa": 8191,
      "sàng": 8192,
      "sắm": 8193,
      "sám": 8194,
      "tổn": 8195,
      "uân": 8196,
      "vò": 8197,
      "vôi": 8198,
      "vần": 8199,
      "vạn": 8200,
      "vứt": 8201,
      "xế": 8202,
      "xông": 8203,
      "áu": 8204,
      "ùn": 8205,
      "đáng": 8206,
      "độc": 8207,
      "đấu": 8208,
      "đập": 8209,
      "đọc": 8210,
      "đựng": 8211,
      "ũi": 8212,
      "ẩy": 8213,
      "ặc": 8214,
      "ngước": 8215,
      "ngẫn": 8216,
      "ngác": 8217,
      "nhu": 8218,
      "nhặt": 8219,
      "thêu": 8220,
      "thất": 8221,
      "thăng": 8222,
      "thốt": 8223,
      "thiếp": 8224,
      "chỗ": 8225,
      "chăm": 8226,
      "chóng": 8227,
      "chạnh": 8228,
      "chùa": 8229,
      "chăn": 8230,
      "chắp": 8231,
      "chớm": 8232,
      "chốc": 8233,
      "chạm": 8234,
      "trân": 8235,
      "trầu": 8236,
      "trồng": 8237,
      "trùm": 8238,
      "trộm": 8239,
      "khá": 8240,
      "khuyên": 8241,
      "gieo": 8242,
      "giùm": 8243,
      "giặc": 8244,
      "quần": 8245,
      "quây": 8246,
      "quạt": 8247,
      "phê": 8248,
      "phú": 8249,
      "phật": 8250,
      "ướp": 8251,
      "nhường": 8252,
      "lạt": 8253,
      "xui": 8254,
      "gìn": 8255,
      "ngoại": 8256,
      "tui": 8257,
      "tuần": 8258,
      "nua": 8259,
      "tính": 8260,
      "nón": 8261,
      "quyện": 8262,
      "đảm": 8263,
      "gom": 8264,
      "hẳn": 8265,
      "sẵn": 8266,
      "bê": 8267,
      "bệ": 8268,
      "bị": 8269,
      "bút": 8270,
      "bủa": 8271,
      "cồn": 8272,
      "cạn": 8273,
      "cúi": 8274,
      "cược": 8275,
      "dề": 8276,
      "dờ": 8277,
      "dao": 8278,
      "dật": 8279,
      "dung": 8280,
      "diện": 8281,
      "gà": 8282,
      "gã": 8283,
      "gõ": 8284,
      "gác": 8285,
      "gáy": 8286,
      "hô": 8287,
      "hợ": 8288,
      "huy": 8289,
      "hào": 8290,
      "hài": 8291,
      "hổng": 8292,
      "kiệu": 8293,
      "lư": 8294,
      "lả": 8295,
      "lưa": 8296,
      "lững": 8297,
      "láng": 8298,
      "lộc": 8299,
      "lìm": 8300,
      "lầy": 8301,
      "lắc": 8302,
      "mâu": 8303,
      "mầm": 8304,
      "mâm": 8305,
      "măng": 8306,
      "múa": 8307,
      "mắn": 8308,
      "mõi": 8309,
      "mạch": 8310,
      "mũi": 8311,
      "nêm": 8312,
      "nới": 8313,
      "nét": 8314,
      "rủ": 8315,
      "rắt": 8316,
      "rướm": 8317,
      "sĩ": 8318,
      "sờ": 8319,
      "sanh": 8320,
      "siết": 8321,
      "sắt": 8322,
      "sơn": 8323,
      "sát": 8324,
      "siêu": 8325,
      "sáu": 8326,
      "tù": 8327,
      "tốc": 8328,
      "tẩy": 8329,
      "vươ": 8330,
      "văn": 8331,
      "vĩnh": 8332,
      "xắn": 8333,
      "yếm": 8334,
      "đô": 8335,
      "đẫ": 8336,
      "đọ": 8337,
      "đống": 8338,
      "đức": 8339,
      "đìu": 8340,
      "ĩu": 8341,
      "ẩm": 8342,
      "ềnh": 8343,
      "ngự": 8344,
      "ngon": 8345,
      "ngâm": 8346,
      "ngục": 8347,
      "ngổn": 8348,
      "ngựa": 8349,
      "nhành": 8350,
      "thê": 8351,
      "thâm": 8352,
      "thắp": 8353,
      "thảnh": 8354,
      "thực": 8355,
      "thổn": 8356,
      "thẩm": 8357,
      "chì": 8358,
      "chủ": 8359,
      "chần": 8360,
      "chùng": 8361,
      "chặng": 8362,
      "chênh": 8363,
      "chùn": 8364,
      "trá": 8365,
      "treo": 8366,
      "trận": 8367,
      "triền": 8368,
      "truyền": 8369,
      "trìu": 8370,
      "trĩu": 8371,
      "khai": 8372,
      "khách": 8373,
      "khởi": 8374,
      "khỏi": 8375,
      "giang": 8376,
      "giải": 8377,
      "giọng": 8378,
      "quà": 8379,
      "quả": 8380,
      "quỳ": 8381,
      "quãng": 8382,
      "quốc": 8383,
      "pho": 8384,
      "phá": 8385,
      "phơi": 8386,
      "phấp": 8387,
      "đâm": 8388,
      "vàn": 8389,
      "tiểu": 8390,
      "mành": 8391,
      "hoay": 8392,
      "nghiệt": 8393,
      "nghiện": 8394,
      "tiến": 8395,
      "xiêu": 8396,
      "hãnh": 8397,
      "loay": 8398,
      "khoai": 8399,
      "khóm": 8400,
      "ghê": 8401,
      "ghêm": 8402,
      "ghềnh": 8403,
      "đòi": 8404,
      "bảy": 8405,
      "chuông": 8406,
      "chuốc": 8407,
      "còi": 8408,
      "quyết": 8409,
      "xoa": 8410,
      "phùn": 8411,
      "thùy": 8412,
      "đảo": 8413,
      "nghiêm": 8414,
      "vòm": 8415,
      "nhuộm": 8416,
      "bệnh": 8417,
      "hợp": 8418,
      "vươn": 8419,
      "đẫm": 8420,
      "đọa": 8421,
      "bù": 8422,
      "bấ": 8423,
      "bề": 8424,
      "bùng": 8425,
      "bật": 8426,
      "bồng": 8427,
      "bức": 8428,
      "bác": 8429,
      "bộn": 8430,
      "búp": 8431,
      "bổng": 8432,
      "cụ": 8433,
      "côn": 8434,
      "cội": 8435,
      "cấu": 8436,
      "cúng": 8437,
      "cắp": 8438,
      "cụng": 8439,
      "cửa": 8440,
      "cột": 8441,
      "dã": 8442,
      "dẩ": 8443,
      "dỗ": 8444,
      "dưa": 8445,
      "dãi": 8446,
      "diều": 8447,
      "dăm": 8448,
      "dầm": 8449,
      "dẹp": 8450,
      "diệt": 8451,
      "dập": 8452,
      "dìa": 8453,
      "dèm": 8454,
      "dột": 8455,
      "dựng": 8456,
      "gả": 8457,
      "gỡ": 8458,
      "gào": 8459,
      "gói": 8460,
      "gập": 8461,
      "gươm": 8462,
      "hơ": 8463,
      "hẫ": 8464,
      "hớ": 8465,
      "hữ": 8466,
      "hông": 8467,
      "hòn": 8468,
      "hãi": 8469,
      "hầu": 8470,
      "heo": 8471,
      "hại": 8472,
      "hẹp": 8473,
      "hưu": 8474,
      "hiệu": 8475,
      "hụt": 8476,
      "hằn": 8477,
      "hiện": 8478,
      "kẹ": 8479,
      "kỹ": 8480,
      "kính": 8481,
      "lã": 8482,
      "lữ": 8483,
      "lỳ": 8484,
      "lao": 8485,
      "lân": 8486,
      "lẫn": 8487,
      "lất": 8488,
      "lâm": 8489,
      "lội": 8490,
      "lót": 8491,
      "lấn": 8492,
      "lén": 8493,
      "lõng": 8494,
      "lặn": 8495,
      "lĩnh": 8496,
      "luân": 8497,
      "miế": 8498,
      "mắng": 8499,
      "miều": 8500,
      "mật": 8501,
      "miệ": 8502,
      "mạnh": 8503,
      "mồng": 8504,
      "mắc": 8505,
      "mác": 8506,
      "mạng": 8507,
      "nệ": 8508,
      "nọ": 8509,
      "nôn": 8510,
      "neo": 8511,
      "nạn": 8512,
      "nấu": 8513,
      "nướng": 8514,
      "nén": 8515,
      "nản": 8516,
      "rể": 8517,
      "rêu": 8518,
      "rước": 8519,
      "rần": 8520,
      "rào": 8521,
      "râm": 8522,
      "rầy": 8523,
      "rạn": 8524,
      "rền": 8525,
      "rỗng": 8526,
      "sẻ": 8527,
      "sử": 8528,
      "sôi": 8529,
      "sóc": 8530,
      "sót": 8531,
      "sắn": 8532,
      "tổ": 8533,
      "tộc": 8534,
      "tành": 8535,
      "tánh": 8536,
      "tách": 8537,
      "tăng": 8538,
      "uất": 8539,
      "vị": 8540,
      "vay": 8541,
      "vân": 8542,
      "vách": 8543,
      "vạt": 8544,
      "vâng": 8545,
      "xõ": 8546,
      "xờ": 8547,
      "xiết": 8548,
      "xuyên": 8549,
      "xưng": 8550,
      "đì": 8551,
      "đơ": 8552,
      "đế": 8553,
      "đờ": 8554,
      "đày": 8555,
      "đồn": 8556,
      "đói": 8557,
      "đùng": 8558,
      "đậu": 8559,
      "ềng": 8560,
      "ợng": 8561,
      "nhô": 8562,
      "nhả": 8563,
      "nhở": 8564,
      "nhiệm": 8565,
      "nhục": 8566,
      "nhằm": 8567,
      "nhậu": 8568,
      "thùa": 8569,
      "thiệt": 8570,
      "thinh": 8571,
      "thướt": 8572,
      "thượng": 8573,
      "chơ": 8574,
      "chợ": 8575,
      "chử": 8576,
      "chuy": 8577,
      "châu": 8578,
      "chầm": 8579,
      "chóc": 8580,
      "chằng": 8581,
      "chấm": 8582,
      "chức": 8583,
      "chường": 8584,
      "chót": 8585,
      "chưng": 8586,
      "chục": 8587,
      "trúc": 8588,
      "trèo": 8589,
      "truân": 8590,
      "khê": 8591,
      "khôi": 8592,
      "khiết": 8593,
      "giày": 8594,
      "giàn": 8595,
      "giường": 8596,
      "giam": 8597,
      "giềng": 8598,
      "quáng": 8599,
      "quản": 8600,
      "phà": 8601,
      "phủ": 8602,
      "phách": 8603,
      "phiến": 8604,
      "phấn": 8605,
      "hoạn": 8606,
      "nghê": 8607,
      "nghề": 8608,
      "nghệ": 8609,
      "chiêng": 8610,
      "cuồng": 8611,
      "tiếu": 8612,
      "đóng": 8613,
      "cứu": 8614,
      "tường": 8615,
      "tượng": 8616,
      "giám": 8617,
      "nhàu": 8618,
      "thua": 8619,
      "niên": 8620,
      "binh": 8621,
      "tuốt": 8622,
      "ượn": 8623,
      "hèn": 8624,
      "bốc": 8625,
      "ghét": 8626,
      "tía": 8627,
      "tích": 8628,
      "thoảng": 8629,
      "lụi": 8630,
      "lụy": 8631,
      "chuỗi": 8632,
      "chuộng": 8633,
      "quyền": 8634,
      "hàm": 8635,
      "xoáy": 8636,
      "địa": 8637,
      "lưỡi": 8638,
      "bấc": 8639,
      "dẩu": 8640,
      "hẫng": 8641,
      "hữu": 8642,
      "kẹo": 8643,
      "miếng": 8644,
      "miệng": 8645,
      "nệm": 8646,
      "xõa": 8647,
      "đơm": 8648,
      "chuyển": 8649
    },
    "merges": [
      "t h",
      "i n",
      "th e",
      "a n",
      "e r",
      "o u",
      "r e",
      "o n",
      "a t",
      "e d",
      "e n",
      "t o",
      "in g",
      "an d",
      "i s",
      "a s",
      "a l",
      "o r",
      "o f",
      "a r",
      "i t",
      "e s",
      "h e",
      "s t",
      "l e",
      "o m",
      "s e",
      "b e",
      "a d",
      "o w",
      "l y",
      "c h",
      "w h",
      "th at",
      "y ou",
      "l i",
      "v e",
      "a c",
      "t i",
      "l d",
      "m e",
      "w as",
      "g h",
      "i d",
      "l l",
      "w i",
      "en t",
      "f or",
      "a y",
      "r o",
      "v er",
      "i c",
      "h er",
      "k e",
      "h is",
      "n o",
      "u t",
      "u n",
      "i r",
      "l o",
      "w e",
      "r i",
      "h a",
      "wi th",
      "gh t",
      "ou t",
      "i m",
      "i on",
      "al l",
      "a b",
      "on e",
      "n e",
      "g e",
      "ou ld",
      "t er",
      "m o",
      "h ad",
      "c e",
      "s he",
      "g o",
      "s h",
      "u r",
      "a m",
      "s o",
      "p e",
      "m y",
      "d e",
      "a re",
      "b ut",
      "om e",
      "f r",
      "the r",
      "f e",
      "s u",
      "d o",
      "c on",
      "t e",
      "a in",
      "er e",
      "p o",
      "i f",
      "the y",
      "u s",
      "a g",
      "t r",
      "n ow",
      "ou n",
      "th is",
      "ha ve",
      "no t",
      "s a",
      "i l",
      "u p",
      "th ing",
      "fr om",
      "a p",
      "h im",
      "ac k",
      "at ion",
      "an t",
      "ou r",
      "o p",
      "li ke",
      "u st",
      "es s",
      "b o",
      "o k",
      "u l",
      "in d",
      "e x",
      "c om",
      "s ome",
      "the re",
      "er s",
      "c o",
      "re s",
      "m an",
      "ar d",
      "p l",
      "w or",
      "w ay",
      "ti on",
      "f o",
      "c a",
      "w ere",
      "b y",
      "at e",
      "p ro",
      "t ed",
      "oun d",
      "ow n",
      "w ould",
      "t s",
      "wh at",
      "q u",
      "al ly",
      "i ght",
      "c k",
      "g r",
      "wh en",
      "v en",
      "c an",
      "ou gh",
      "in e",
      "en d",
      "p er",
      "ou s",
      "o d",
      "id e",
      "k now",
      "t y",
      "ver y",
      "s i",
      "a k",
      "wh o",
      "ab out",
      "i ll",
      "the m",
      "es t",
      "re d",
      "y e",
      "c ould",
      "on g",
      "you r",
      "the ir",
      "e m",
      "j ust",
      "o ther",
      "in to",
      "an y",
      "wh i",
      "u m",
      "t w",
      "as t",
      "d er",
      "d id",
      "i e",
      "be en",
      "ac e",
      "in k",
      "it y",
      "b ack",
      "t ing",
      "b r",
      "mo re",
      "a ke",
      "p p",
      "the n",
      "s p",
      "e l",
      "u se",
      "b l",
      "sa id",
      "o ver",
      "ge t",
      "e n",
      "e r",
      "c h",
      "e i",
      "i e",
      "u n",
      "i ch",
      "ei n",
      "s t",
      "a n",
      "t e",
      "g e",
      "a u",
      "i n",
      "s ch",
      "d er",
      "un d",
      "d ie",
      "d a",
      "e s",
      "a l",
      "d en",
      "a r",
      "g en",
      "z u",
      "d e",
      "h r",
      "o n",
      "t en",
      "e l",
      "o r",
      "m i",
      "s ie",
      "da s",
      "a t",
      "b e",
      "ein e",
      "ich t",
      "b er",
      "l e",
      "a ch",
      "v er",
      "s e",
      "au f",
      "w i",
      "s o",
      "t er",
      "l ich",
      "c k",
      "u r",
      "n icht",
      "m m",
      "b en",
      "a s",
      "w ar",
      "r e",
      "mi t",
      "s ich",
      "i g",
      "l l",
      "au s",
      "i st",
      "w ie",
      "o ch",
      "un g",
      "an n",
      "ü r",
      "h n",
      "i hr",
      "s a",
      "s en",
      "t z",
      "de m",
      "ei t",
      "u m",
      "h at",
      "wi r",
      "v on",
      "h a",
      "s p",
      "w ei",
      "i er",
      "r o",
      "h er",
      "r a",
      "ein en",
      "n e",
      "v or",
      "al s",
      "an d",
      "al l",
      "w as",
      "w o",
      "r ei",
      "st e",
      "l ie",
      "au ch",
      "d u",
      "d es",
      "k o",
      "ü ber",
      "a m",
      "b ei",
      "h en",
      "h m",
      "l ei",
      "a ber",
      "w en",
      "h l",
      "g er",
      "i m",
      "u t",
      "n ach",
      "h e",
      "i s",
      "b r",
      "f t",
      "en t",
      "i mm",
      "j e",
      "sch en",
      "w er",
      "s er",
      "a b",
      "ä n",
      "m e",
      "s ein",
      "i t",
      "o l",
      "ch t",
      "f ür",
      "k l",
      "f f",
      "eine m",
      "n en",
      "w e",
      "j a",
      "u s",
      "n och",
      "hat te",
      "t r",
      "p f",
      "h in",
      "d i",
      "ch en",
      "b l",
      "m an",
      "r ü",
      "ie l",
      "s el",
      "das s",
      "i hn",
      "mi r",
      "sch l",
      "ö n",
      "g an",
      "g t",
      "ein er",
      "st en",
      "m ich",
      "wen n",
      "el l",
      "g te",
      "in d",
      "m al",
      "ge l",
      "k en",
      "n ur",
      "mm en",
      "f ü",
      "er n",
      "ö r",
      "un ter",
      "f r",
      "an der",
      "g r",
      "i l",
      "d ur",
      "u ch",
      "f e",
      "t a",
      "m en",
      "m ach",
      "d och",
      "t i",
      "dur ch",
      "o s",
      "g l",
      "h al",
      "ihr e",
      "w ä",
      "imm er",
      "i hm",
      "k ann",
      "or t",
      "d ann",
      "l an",
      "tz t",
      "o der",
      "hr en",
      "e t",
      "k ön",
      "i ck",
      "f a",
      "in g",
      "i r",
      "wie der",
      "da ß",
      "m ein",
      "f en",
      "gan z",
      "die se",
      "st er",
      "da r",
      "w a",
      "ge s",
      "n a",
      "f l",
      "i gen",
      "sch e",
      "un gen",
      "me hr",
      "ß en",
      "o t",
      "k on",
      "ge w",
      "ha ben",
      "ge h",
      "ä t",
      "s ind",
      "d r",
      "w el",
      "un s",
      "v o",
      "m a",
      "u te",
      "sch on",
      "b es",
      "ge sch",
      "b t",
      "ch e",
      "s on",
      "o b",
      "l a",
      "p p",
      "rü ck",
      "s eine",
      "k r",
      "f re",
      "ei l",
      "zu m",
      "u l",
      "h ier",
      "k t",
      "i ge",
      "sp r",
      "k e",
      "le ben",
      "b st",
      "z eit",
      "i on",
      "g ro",
      "den n",
      "h o",
      "sch a",
      "b ar",
      "al le",
      "ge gen",
      "w ür",
      "m ü",
      "z e",
      "wer den",
      "je tzt",
      "ko mmen",
      "n ie",
      "s ei",
      "h eit",
      "so ll",
      "g lei",
      "m eine",
      "wo ll",
      "n er",
      "ha be",
      "w ur",
      "lich en",
      "p er",
      "as sen",
      "n te",
      "se hen",
      "wir d",
      "b is",
      "g ar",
      "i en",
      "m us",
      "u ß",
      "ä r",
      "st ell",
      "k eit",
      "z wei",
      "sel bst",
      "st a",
      "p a",
      "sa gte",
      "te t",
      "k am",
      "s sen",
      "v iel",
      "u g",
      "z en",
      "h ei",
      "m ann",
      "wi ll",
      "ge b",
      "war en",
      "ü ck",
      "ä ch",
      "m er",
      "r u",
      "w or",
      "h au",
      "ei gen",
      "an g",
      "we g",
      "bl ick",
      "f ra",
      "all es",
      "k a",
      "au gen",
      "f in",
      "lich e",
      "t o",
      "un ser",
      "der n",
      "her r",
      "n un",
      "v ie",
      "ch te",
      "wo hl",
      "f all",
      "h t",
      "ü n",
      "et was",
      "st and",
      "en d",
      "ä u",
      "e m",
      "m ö",
      "te l",
      "r ie",
      "d ich",
      "die s",
      "h and",
      "b in",
      "ff en",
      "nicht s",
      "d an",
      "p l",
      "hn e",
      "ihn en",
      "es en",
      "die ser",
      "fr au",
      "an t",
      "ar t",
      "di r",
      "i sch",
      "er st",
      "glei ch",
      "ko mm",
      "h ör",
      "ß e",
      "d ig",
      "se hr",
      "z ei",
      "sa m",
      "au m",
      "h ät",
      "in gen",
      "g ut",
      "b o",
      "m ut",
      "ck en",
      "kon nte",
      "st imm",
      "p ro",
      "zu r",
      "i tz",
      "wei l",
      "wür de",
      "f ä",
      "kön nen",
      "k eine",
      "f er",
      "i schen",
      "vo ll",
      "ein es",
      "se tz",
      "z ie",
      "de l",
      "te te",
      "sein er",
      "ier en",
      "ge st",
      "zu rück",
      "wur de",
      "sch n",
      "p r",
      "lie ß",
      "t ra",
      "m ä",
      "gen d",
      "f ol",
      "i k",
      "schl a",
      "scha ft",
      "at er",
      "wei ß",
      "s einen",
      "l assen",
      "l u",
      "und en",
      "t eil",
      "ne u",
      "ier t",
      "men schen",
      "hm en",
      "st r",
      "g i",
      "sa h",
      "ihr en",
      "el n",
      "wei ter",
      "ge hen",
      "ig er",
      "mach t",
      "ta g",
      "al so",
      "hal ten",
      "n is",
      "ach t",
      "ge ben",
      "f or",
      "o g",
      "n at",
      "m ar",
      "de t",
      "o hne",
      "h aus",
      "t ro",
      "an ge",
      "l au",
      "sp iel",
      "t re",
      "sch r",
      "in n",
      "s u",
      "l os",
      "mach en",
      "hät te",
      "be g",
      "wir k",
      "al t",
      "g lich",
      "te s",
      "r icht",
      "fre und",
      "m o",
      "ihr er",
      "f el",
      "b el",
      "so l",
      "ein mal",
      "e ben",
      "h ol",
      "h än",
      "q u",
      "ter n",
      "h ö",
      "sch w",
      "re cht",
      "wa hr",
      "s einem",
      "ste hen",
      "hl en",
      "in s",
      "g ing",
      "woll te",
      "wi ssen",
      "ung s",
      "al d",
      "as s",
      "ja hr",
      "m or",
      "wel t",
      "un der",
      "zu sa",
      "at ion",
      "ko pf",
      "lan g",
      "hin ter",
      "at z",
      "st ra",
      "an gen",
      "an k",
      "a de",
      "gl au",
      "f ach",
      "hat ten",
      "l o",
      "f ort",
      "ei cht",
      "i ff",
      "l er",
      "m ei",
      "diese m",
      "k ein",
      "f rei",
      "fü hr",
      "vo m",
      "e s",
      "e n",
      "a i",
      "o u",
      "o n",
      "l e",
      "d e",
      "r e",
      "q u",
      "a n",
      "e r",
      "en t",
      "e t",
      "l a",
      "n e",
      "i l",
      "a r",
      "i s",
      "ai t",
      "t e",
      "a u",
      "i n",
      "qu e",
      "i t",
      "u r",
      "s e",
      "l es",
      "c h",
      "c e",
      "m e",
      "o r",
      "ou r",
      "a s",
      "p r",
      "a v",
      "o m",
      "ai s",
      "u n",
      "an t",
      "ou s",
      "t r",
      "t i",
      "l u",
      "o i",
      "e u",
      "l le",
      "s i",
      "p ar",
      "d es",
      "an s",
      "m ent",
      "é t",
      "es t",
      "j e",
      "u ne",
      "a l",
      "p as",
      "t re",
      "qu i",
      "d u",
      "r i",
      "c on",
      "s on",
      "c om",
      "e lle",
      "d é",
      "p our",
      "d ans",
      "l i",
      "s a",
      "r é",
      "t ou",
      "v ous",
      "d i",
      "v i",
      "a g",
      "a m",
      "a t",
      "ou v",
      "a p",
      "ti on",
      "m on",
      "s ur",
      "c i",
      "o s",
      "p lu",
      "s u",
      "en d",
      "a b",
      "è re",
      "ai n",
      "m ais",
      "o is",
      "r es",
      "plu s",
      "é e",
      "ai ent",
      "m p",
      "ch e",
      "lu i",
      "av e",
      "ét ait",
      "m a",
      "s es",
      "tou t",
      "i r",
      "v o",
      "a c",
      "s er",
      "an d",
      "f f",
      "oi r",
      "g r",
      "av ait",
      "é s",
      "m es",
      "n ous",
      "eu x",
      "b i",
      "t er",
      "c o",
      "on s",
      "p u",
      "c es",
      "g e",
      "t u",
      "le ur",
      "pr o",
      "d on",
      "e ur",
      "et te",
      "ai re",
      "ave c",
      "d it",
      "t é",
      "i e",
      "u s",
      "il le",
      "p er",
      "com me",
      "c r",
      "or t",
      "m i",
      "e x",
      "u x",
      "v er",
      "m o",
      "è s",
      "v e",
      "au x",
      "r a",
      "j our",
      "il s",
      "bi en",
      "c ou",
      "p e",
      "que l",
      "p eu",
      "c ette",
      "t es",
      "p o",
      "in s",
      "c u",
      "m ê",
      "s o",
      "f ait",
      "g u",
      "m ar",
      "ê tre",
      "l o",
      "it é",
      "f r",
      "a tion",
      "en s",
      "b r",
      "n i",
      "l é",
      "d is",
      "b le",
      "m an",
      "n é",
      "pu is",
      "mê me",
      "qu es",
      "f i",
      "e l",
      "ag e",
      "g ar",
      "m oi",
      "en ce",
      "on t",
      "m ain",
      "or s",
      "au t",
      "an ce",
      "v en",
      "m é",
      "s ans",
      "e m",
      "s é",
      "l on",
      "h om",
      "r o",
      "u t",
      "c ar",
      "ab le",
      "i m",
      "de r",
      "ch er",
      "n o",
      "vi e",
      "au s",
      "b e",
      "de ux",
      "en f",
      "o ù",
      "t en",
      "p h",
      "u re",
      "te mp",
      "p os",
      "r ent",
      "p é",
      "f aire",
      "p i",
      "tr es",
      "ç a",
      "an g",
      "end re",
      "f or",
      "p a",
      "b on",
      "s ou",
      "in t",
      "pr é",
      "s ent",
      "t ant",
      "n er",
      "c er",
      "l à",
      "l ais",
      "pr ès",
      "b re",
      "c our",
      "p et",
      "i on",
      "i ne",
      "com p",
      "l ait",
      "tr ouv",
      "t a",
      "ent re",
      "son t",
      "de v",
      "n u",
      "temp s",
      "d ou",
      "r ait",
      "b ou",
      "qu and",
      "jour s",
      "l an",
      "er s",
      "av oir",
      "ét é",
      "a le",
      "p re",
      "f ois",
      "or te",
      "v é",
      "m er",
      "n on",
      "t ous",
      "j us",
      "cou p",
      "t s",
      "hom me",
      "ê te",
      "a d",
      "aus si",
      "ur s",
      "se u",
      "or d",
      "o b",
      "m in",
      "g é",
      "co re",
      "v a",
      "v re",
      "en core",
      "se m",
      "i te",
      "au tre",
      "pr is",
      "peu t",
      "u e",
      "an te",
      "m al",
      "g n",
      "ré p",
      "h u",
      "si on",
      "vo tre",
      "di re",
      "e z",
      "f em",
      "leur s",
      "m et",
      "f in",
      "c ri",
      "m is",
      "t our",
      "r ai",
      "j am",
      "re gar",
      "ri en",
      "ver s",
      "su is",
      "p ouv",
      "o p",
      "v is",
      "gr and",
      "ant s",
      "c or",
      "re r",
      "ar d",
      "c é",
      "t ent",
      "pr es",
      "v ou",
      "f a",
      "al ors",
      "si eur",
      "ai ne",
      "le r",
      "qu oi",
      "f on",
      "end ant",
      "ar ri",
      "eu re",
      "a près",
      "don c",
      "it u",
      "l è",
      "s ait",
      "t oi",
      "ch a",
      "ai l",
      "as se",
      "i mp",
      "vo y",
      "con n",
      "p la",
      "pet it",
      "av ant",
      "n om",
      "t in",
      "don t",
      "d a",
      "s ous",
      "e mp",
      "per son",
      "el les",
      "be au",
      "par ti",
      "ch o",
      "pr it",
      "tou jours",
      "m en",
      "r ais",
      "jam ais",
      "tr av",
      "tion s",
      "tr ès",
      "v oi",
      "r en",
      "y eux",
      "f er",
      "v oir",
      "pre mi",
      "c a",
      "g ne",
      "h eure",
      "r ou",
      "e ff",
      "no tre",
      "ment s",
      "t on",
      "f ais",
      "ce la",
      "i er",
      "rép on",
      "con s",
      "ai r",
      "ô t",
      "p endant",
      "i ci",
      "tou te",
      "j et",
      "p ort",
      "ét aient",
      "p en",
      "h é",
      "au tres",
      "p ère",
      "o c",
      "quel ques",
      "i que",
      "l is",
      "fem me",
      "j ou",
      "te ur",
      "mon de",
      "u se",
      "n es",
      "d re",
      "a ff",
      "r ap",
      "par t",
      "le ment",
      "c la",
      "f ut",
      "quel que",
      "pr endre",
      "r ê",
      "ai lle",
      "s ais",
      "ch es",
      "le t",
      "ch ar",
      "è res",
      "ent s",
      "b er",
      "g er",
      "mo ins",
      "e au",
      "a î",
      "j eu",
      "h eur",
      "é es",
      "tr i",
      "po int",
      "m om",
      "v ent",
      "n ouv",
      "gr an",
      "tr ois",
      "s ant",
      "tout es",
      "con tre",
      "è rent",
      "che z",
      "ave z",
      "û t",
      "a lle",
      "at t",
      "p au",
      "p orte",
      "ouv er",
      "b ar",
      "l it",
      "f ort",
      "o t",
      "as s",
      "pr és",
      "cho se",
      "v it",
      "mon sieur",
      "h ab",
      "t ête",
      "j u",
      "te ment",
      "c tion",
      "v rai",
      "la r",
      "c et",
      "regar d",
      "l ant",
      "de m",
      "s om",
      "mom ent",
      "il les",
      "p le",
      "p s",
      "b es",
      "m ère",
      "c l",
      "s our",
      "y s",
      "tr op",
      "en ne",
      "jus qu",
      "av aient",
      "av ais",
      "jeu ne",
      "de puis",
      "person ne",
      "f it",
      "cer t",
      "j o",
      "g es",
      "ou i",
      "r est",
      "sem b",
      "c ap",
      "m at",
      "m u",
      "lon g",
      "fr an",
      "f aut",
      "it i",
      "b li",
      "che v",
      "pr i",
      "ent e",
      "ain si",
      "ch am",
      "l ors",
      "c as",
      "d o",
      "il i",
      "b é",
      "n os",
      "an ge",
      "su i",
      "r it",
      "cr o",
      "gu e",
      "d e",
      "e n",
      "e s",
      "o s",
      "l a",
      "e r",
      "q u",
      "a r",
      "a n",
      "o n",
      "qu e",
      "a s",
      "o r",
      "e l",
      "d o",
      "a l",
      "c i",
      "u n",
      "r e",
      "a b",
      "i n",
      "t e",
      "t o",
      "s e",
      "d i",
      "t r",
      "d a",
      "c on",
      "t a",
      "s u",
      "m i",
      "c o",
      "t i",
      "l e",
      "l os",
      "n o",
      "l o",
      "í a",
      "c u",
      "c a",
      "s i",
      "v i",
      "m e",
      "p or",
      "m o",
      "p ar",
      "r a",
      "r i",
      "la s",
      "c h",
      "r o",
      "m a",
      "p er",
      "ó n",
      "m en",
      "de s",
      "un a",
      "m p",
      "s o",
      "ab a",
      "p u",
      "d os",
      "t u",
      "g u",
      "er a",
      "de l",
      "h a",
      "m u",
      "l i",
      "en t",
      "m b",
      "h ab",
      "es t",
      "g o",
      "p a",
      "r es",
      "par a",
      "p o",
      "á s",
      "m os",
      "tr a",
      "t en",
      "an do",
      "p i",
      "qu i",
      "b i",
      "m an",
      "co mo",
      "v e",
      "m ás",
      "j o",
      "ci ón",
      "i s",
      "t an",
      "v o",
      "da d",
      "c e",
      "a do",
      "v er",
      "f u",
      "ci a",
      "c er",
      "p e",
      "c as",
      "c ar",
      "men te",
      "n i",
      "su s",
      "t ar",
      "n a",
      "f i",
      "t er",
      "z a",
      "p ro",
      "tr o",
      "s a",
      "l u",
      "b a",
      "per o",
      "s er",
      "c es",
      "d as",
      "d u",
      "s in",
      "e mp",
      "m ar",
      "l la",
      "e x",
      "á n",
      "c or",
      "i a",
      "v a",
      "r an",
      "ch o",
      "g a",
      "y o",
      "t os",
      "c os",
      "mi s",
      "l es",
      "t es",
      "v en",
      "h o",
      "y a",
      "en te",
      "on es",
      "hab ía",
      "n u",
      "u s",
      "p as",
      "h i",
      "n os",
      "es ta",
      "la n",
      "m as",
      "t or",
      "l le",
      "h e",
      "s on",
      "b re",
      "p re",
      "ab an",
      "d or",
      "í an",
      "i r",
      "t as",
      "é n",
      "r u",
      "en do",
      "a que",
      "er o",
      "i o",
      "qu é",
      "m in",
      "c ab",
      "j a",
      "de r",
      "t al",
      "é s",
      "se ñ",
      "or a",
      "to do",
      "la r",
      "d on",
      "g ar",
      "s al",
      "p r",
      "cu ando",
      "j e",
      "h u",
      "g un",
      "b u",
      "g i",
      "d ar",
      "n e",
      "r as",
      "de n",
      "es to",
      "par e",
      "p en",
      "é l",
      "tr as",
      "c an",
      "b o",
      "j os",
      "mi en",
      "pu e",
      "c re",
      "co mp",
      "p on",
      "d ía",
      "tr os",
      "s ab",
      "so bre",
      "es e",
      "mb re",
      "er on",
      "a ñ",
      "m or",
      "f or",
      "i do",
      "por que",
      "el la",
      "p ri",
      "g ran",
      "f a",
      "c en",
      "di s",
      "c ri",
      "mu y",
      "ch a",
      "c al",
      "es te",
      "h as",
      "c ó",
      "g ra",
      "r os",
      "p os",
      "o b",
      "al l",
      "aque l",
      "j u",
      "p res",
      "m er",
      "di jo",
      "c ía",
      "ent re",
      "z o",
      "ci ones",
      "bi en",
      "mb i",
      "el o",
      "t ó",
      "in a",
      "to dos",
      "g en",
      "ti en",
      "est aba",
      "de ci",
      "ci o",
      "h er",
      "ñ o",
      "l or",
      "nu es",
      "me di",
      "l en",
      "vi da",
      "f e",
      "al i",
      "m on",
      "c la",
      "d re",
      "pu es",
      "al es",
      "vo l",
      "m í",
      "r ar",
      "b le",
      "ci on",
      "has ta",
      "señ or",
      "con o",
      "a h",
      "di os",
      "s en",
      "es a",
      "ú n",
      "v ar",
      "s an",
      "gu i",
      "a c",
      "o tros",
      "ta do",
      "bu en",
      "ñ a",
      "ti emp",
      "ha cer",
      "j er",
      "f er",
      "v u",
      "f in",
      "an a",
      "as í",
      "an tes",
      "t in",
      "ve z",
      "mien to",
      "j ar",
      "la b",
      "ch e",
      "cas a",
      "d r",
      "es o",
      "e go",
      "di ó",
      "an te",
      "est á",
      "m al",
      "en cia",
      "el i",
      "í as",
      "tiemp o",
      "z ar",
      "v an",
      "m un",
      "er ta",
      "ta mbi",
      "s í",
      "b ar",
      "a un",
      "al e",
      "mis mo",
      "ent es",
      "vi s",
      "man o",
      "el e",
      "na da",
      "se gu",
      "me j",
      "er ra",
      "ab le",
      "b e",
      "ti r",
      "un o",
      "don de",
      "to da",
      "des de",
      "r en",
      "tambi én",
      "cu er",
      "per son",
      "ho mbre",
      "o tro",
      "li b",
      "tr ar",
      "cu al",
      "ha y",
      "a u",
      "ca da",
      "t aba",
      "i mp",
      "men to",
      "ten ía",
      "qu er",
      "er an",
      "si emp",
      "siemp re",
      "er to",
      "qu í",
      "g os",
      "pu és",
      "el los",
      "des pués",
      "nu e",
      "g an",
      "l lo",
      "in ter",
      "có mo",
      "tr i",
      "ah ora",
      "us te",
      "tr aba",
      "la do",
      "in o",
      "po co",
      "er te",
      "mu jer",
      "i m",
      "qui er",
      "al gun",
      "fu e",
      "o jos",
      "ent on",
      "v os",
      "es per",
      "mu ch",
      "o tra",
      "a z",
      "a d",
      "in g",
      "e za",
      "a quí",
      "ci as",
      "gu a",
      "mu cho",
      "deci r",
      "es ti",
      "i dad",
      "al go",
      "e z",
      "o cu",
      "enton ces",
      "di do",
      "ent os",
      "g ri",
      "da do",
      "i os",
      "so l",
      "dos e",
      "uste d",
      "qui en",
      "a mi",
      "un to",
      "f r",
      "mi r",
      "mej or",
      "b as",
      "so lo",
      "pre gun",
      "tu r",
      "al g",
      "p la",
      "to das",
      "par te",
      "e mb",
      "c to",
      "mun do",
      "tien e",
      "tan te",
      "pa lab",
      "tr an",
      "aque lla",
      "ci os",
      "aun que",
      "a y",
      "cu en",
      "ten er",
      "f un",
      "res pon",
      "all í",
      "x i",
      "h an",
      "pen s",
      "con tra",
      "tu ra",
      "v al",
      "di o",
      "tr es",
      "t re",
      "tan to",
      "ca min",
      "m ó",
      "es p",
      "a da",
      "í o",
      "in s",
      "ha cia",
      "de j",
      "est ar",
      "i ón",
      "g as",
      "b er",
      "v as",
      "no che",
      "é r",
      "añ os",
      "pa dre",
      "gu s",
      "á r",
      "sin o",
      "man os",
      "ci do",
      "es tu",
      "a de",
      "hu bi",
      "vi r",
      "b ri",
      "ra z",
      "ch i",
      "pue de",
      "men os",
      "hab i",
      "ho mb",
      "ne ces",
      "ma y",
      "er os",
      "r ía",
      "he cho",
      "es cu",
      "l ti",
      "án do",
      "b us",
      "cos as",
      "t ú",
      "es pa",
      "re ci",
      "c tor",
      "pri m",
      "di a",
      "de se",
      "mien tras",
      "h or",
      "fu er",
      "i da",
      "pos i",
      "lan te",
      "t on",
      "an o",
      "est as",
      "p li",
      "ch ar",
      "lu ego",
      "si ón",
      "ci n",
      "ti erra",
      "m es",
      "gu ar",
      "ca do",
      "en con",
      "pr en",
      "may or",
      "f al",
      "e r",
      "o n",
      "a n",
      "t o",
      "d i",
      "r e",
      "l a",
      "i n",
      "e n",
      "a l",
      "t a",
      "c h",
      "e l",
      "r i",
      "c o",
      "t i",
      "t e",
      "s i",
      "r a",
      "u n",
      "l e",
      "l i",
      "ch e",
      "r o",
      "c i",
      "c a",
      "s e",
      "q u",
      "m a",
      "p o",
      "s o",
      "i l",
      "d o",
      "e s",
      "v a",
      "p er",
      "l o",
      "c on",
      "d el",
      "p a",
      "m o",
      "s a",
      "p i",
      "d a",
      "m i",
      "g i",
      "s u",
      "d e",
      "v i",
      "z i",
      "m e",
      "g li",
      "n o",
      "m en",
      "v o",
      "t u",
      "n on",
      "v e",
      "t to",
      "s t",
      "on e",
      "an o",
      "ch i",
      "er a",
      "er e",
      "f a",
      "c e",
      "z a",
      "un a",
      "b i",
      "p re",
      "s ta",
      "o r",
      "a r",
      "f i",
      "on o",
[...]
